<unk>	0
<s>	0
</s>	0
▁t	-0
ou	-1
▁a	-2
re	-3
▁d	-4
▁p	-5
▁s	-6
es	-7
on	-8
▁l	-9
en	-10
is	-11
in	-12
he	-13
▁c	-14
▁m	-15
er	-16
an	-17
▁I	-18
it	-19
▁n	-20
▁w	-21
▁f	-22
om	-23
as	-24
qu	-25
▁b	-26
ll	-27
▁T	-28
at	-29
ar	-30
▁de	-31
▁v	-32
▁h	-33
or	-34
▁y	-35
▁to	-36
▁J	-37
▁qu	-38
ent	-39
ve	-40
▁the	-41
▁you	-42
ous	-43
un	-44
ai	-45
est	-46
le	-47
ing	-48
et	-49
▁g	-50
us	-51
▁th	-52
ed	-53
▁pas	-54
▁Je	-55
ais	-56
▁o	-57
▁un	-58
▁que	-59
ot	-60
eu	-61
▁Tom	-62
▁ne	-63
▁j	-64
our	-65
▁?	-66
ri	-67
▁le	-68
▁la	-69
te	-70
▁re	-71
il	-72
▁in	-73
▁is	-74
ro	-75
▁à	-76
ant	-77
ait	-78
ce	-79
oi	-80
▁C	-81
▁me	-82
▁he	-83
im	-84
lle	-85
▁su	-86
▁L	-87
se	-88
id	-89
▁be	-90
▁e	-91
▁of	-92
▁W	-93
▁an	-94
▁en	-95
ion	-96
▁S	-97
▁ha	-98
▁Il	-99
ay	-100
▁est	-101
ut	-102
ow	-103
▁H	-104
al	-105
ic	-106
▁tr	-107
out	-108
▁do	-109
ét	-110
▁M	-111
▁The	-112
me	-113
▁E	-114
▁ch	-115
ment	-116
▁on	-117
ch	-118
▁r	-119
▁N	-120
▁li	-121
▁se	-122
ver	-123
ir	-124
▁A	-125
▁pl	-126
ain	-127
ie	-128
▁te	-129
st	-130
ld	-131
ke	-132
▁par	-133
▁D	-134
▁com	-135
ag	-136
▁Y	-137
au	-138
▁for	-139
▁ce	-140
am	-141
ont	-142
▁that	-143
pp	-144
oo	-145
hat	-146
▁was	-147
▁P	-148
▁He	-149
▁vous	-150
ons	-151
ad	-152
and	-153
▁une	-154
tu	-155
res	-156
ac	-157
▁You	-158
▁not	-159
▁it	-160
▁les	-161
ill	-162
gh	-163
ren	-164
ans	-165
av	-166
▁have	-167
▁we	-168
ne	-169
ter	-170
eux	-171
▁k	-172
▁pour	-173
ur	-174
ien	-175
▁je	-176
▁ét	-177
▁as	-178
her	-179
end	-180
▁pr	-181
êt	-182
ble	-183
▁don	-184
▁au	-185
os	-186
ol	-187
ée	-188
ang	-189
▁dé	-190
▁your	-191
▁!	-192
que	-193
aire	-194
▁st	-195
▁V	-196
ly	-197
▁all	-198
ore	-199
▁des	-200
ould	-201
▁my	-202
all	-203
ue	-204
▁suis	-205
▁are	-206
ght	-207
▁and	-208
▁can	-209
if	-210
ère	-211
ard	-212
ure	-213
▁want	-214
ith	-215
▁this	-216
oir	-217
▁go	-218
▁at	-219
▁We	-220
▁pro	-221
ct	-222
vous	-223
▁She	-224
ui	-225
▁et	-226
▁dans	-227
▁av	-228
▁with	-229
▁It	-230
▁Elle	-231
ort	-232
pe	-233
▁kn	-234
▁so	-235
mp	-236
▁mon	-237
▁con	-238
ig	-239
▁Nous	-240
▁know	-241
▁wh	-242
▁ave	-243
▁du	-244
▁tu	-245
ation	-246
▁Q	-247
▁fr	-248
▁plus	-249
ul	-250
ust	-251
▁sh	-252
ess	-253
de	-254
eur	-255
▁did	-256
▁like	-257
▁his	-258
ire	-259
éc	-260
▁ex	-261
▁ri	-262
▁ar	-263
▁Mar	-264
ers	-265
▁Tu	-266
▁som	-267
ink	-268
▁sur	-269
ens	-270
▁fait	-271
▁faire	-272
▁qui	-273
▁nous	-274
ap	-275
age	-276
ès	-277
ook	-278
oin	-279
▁am	-280
▁Vous	-281
▁sa	-282
hing	-283
ak	-284
▁him	-285
▁Le	-286
▁ab	-287
▁êt	-288
és	-289
ose	-290
el	-291
up	-292
▁al	-293
▁O	-294
▁wor	-295
▁her	-296
▁avec	-297
▁tout	-298
▁Wh	-299
▁comp	-300
▁La	-301
ime	-302
ist	-303
ite	-304
▁Th	-305
op	-306
ate	-307
▁B	-308
rai	-309
ong	-310
ind	-311
one	-312
▁has	-313
▁man	-314
▁What	-315
▁dev	-316
ine	-317
▁ver	-318
▁think	-319
▁what	-320
▁us	-321
che	-322
ake	-323
ouv	-324
ça	-325
ci	-326
▁sont	-327
bl	-328
ance	-329
▁Do	-330
▁any	-331
▁F	-332
ive	-333
ood	-334
▁out	-335
ide	-336
imp	-337
ois	-338
oy	-339
▁ça	-340
▁si	-341
ette	-342
ez	-343
mps	-344
ost	-345
um	-346
▁son	-347
▁Mary	-348
ave	-349
▁Les	-350
▁dis	-351
ier	-352
▁mais	-353
nd	-354
ux	-355
ry	-356
▁fe	-357
ici	-358
▁quel	-359
▁il	-360
▁very	-361
oup	-362
▁part	-363
▁était	-364
ille	-365
onne	-366
ouve	-367
▁peu	-368
si	-369
▁app	-370
ff	-371
mes	-372
uis	-373
cc	-374
▁get	-375
▁They	-376
▁time	-377
able	-378
ours	-379
▁had	-380
▁This	-381
are	-382
ense	-383
▁mar	-384
use	-385
aut	-386
▁veux	-387
▁Ce	-388
▁up	-389
▁très	-390
▁will	-391
art	-392
▁cl	-393
▁Com	-394
▁lui	-395
very	-396
ép	-397
der	-398
otre	-399
app	-400
▁temps	-401
rent	-402
▁about	-403
dre	-404
rit	-405
▁G	-406
▁tou	-407
▁from	-408
iv	-409
▁moi	-410
▁were	-411
▁but	-412
▁ser	-413
▁gr	-414
ast	-415
▁Que	-416
here	-417
▁see	-418
▁too	-419
je	-420
▁Ne	-421
ions	-422
▁no	-423
ally	-424
▁che	-425
ge	-426
ck	-427
▁or	-428
ase	-429
▁How	-430
▁one	-431
▁here	-432
ise	-433
▁tro	-434
▁need	-435
▁être	-436
ass	-437
▁ad	-438
▁vou	-439
▁ma	-440
ight	-441
▁hom	-442
▁été	-443
él	-444
alk	-445
▁lo	-446
▁car	-447
▁dem	-448
▁jam	-449
▁That	-450
▁vrai	-451
▁votre	-452
une	-453
▁didn	-454
ep	-455
day	-456
▁co	-457
avai	-458
▁there	-459
lles	-460
ra	-461
ors	-462
ière	-463
lf	-464
ice	-465
▁work	-466
ten	-467
▁Pour	-468
▁There	-469
▁travai	-470
la	-471
quoi	-472
▁Don	-473
▁dit	-474
ays	-475
uit	-476
▁good	-477
▁U	-478
pr	-479
ner	-480
ven	-481
▁ag	-482
▁ent	-483
▁pense	-484
▁by	-485
▁just	-486
▁look	-487
▁My	-488
ress	-489
iff	-490
▁ro	-491
▁cette	-492
ack	-493
ish	-494
tre	-495
rais	-496
▁dire	-497
▁would	-498
té	-499
ient	-500
▁imp	-501
▁parl	-502
▁going	-503
mer	-504
▁pre	-505
▁beau	-506
▁bien	-507
▁cont	-508
▁jamais	-509
▁should	-510
ab	-511
▁chose	-512
elle	-513
▁aut	-514
▁per	-515
▁es	-516
▁ont	-517
▁happ	-518
▁sais	-519
▁seu	-520
thing	-521
lp	-522
▁En	-523
▁bl	-524
▁Ils	-525
▁tell	-526
▁é	-527
ame	-528
ile	-529
▁liv	-530
dy	-531
ob	-532
▁ph	-533
▁ple	-534
▁arri	-535
▁diff	-536
▁does	-537
▁"	-538
▁pe	-539
▁help	-540
▁every	-541
orte	-542
▁sp	-543
ique	-544
▁long	-545
▁more	-546
moi	-547
▁ici	-548
▁ren	-549
▁pla	-550
▁than	-551
ound	-552
▁res	-553
▁spe	-554
▁ton	-555
▁been	-556
▁peux	-557
▁R	-558
bre	-559
orm	-560
▁mu	-561
▁who	-562
▁ré	-563
ité	-564
▁êtes	-565
air	-566
▁ou	-567
▁never	-568
ils	-569
coup	-570
▁much	-571
▁grand	-572
gl	-573
ade	-574
oit	-575
▁let	-576
▁could	-577
tes	-578
▁Qu	-579
▁att	-580
▁talk	-581
ond	-582
▁cro	-583
▁sav	-584
▁pass	-585
▁pers	-586
▁read	-587
iss	-588
▁Are	-589
▁Pourquoi	-590
▁beaucoup	-591
▁vraiment	-592
ami	-593
▁Why	-594
▁she	-595
ars	-596
ies	-597
ants	-598
▁off	-599
ign	-600
onn	-601
other	-602
▁lit	-603
▁stu	-604
anger	-605
▁some	-606
▁tous	-607
▁trop	-608
▁comme	-609
ale	-610
ree	-611
row	-612
ême	-613
ête	-614
▁toi	-615
ange	-616
▁enc	-617
▁fin	-618
▁mat	-619
▁voul	-620
▁train	-621
▁Sami	-622
▁comm	-623
▁main	-624
rendre	-625
ré	-626
ces	-627
▁br	-628
▁if	-629
▁mal	-630
▁now	-631
▁ven	-632
▁come	-633
▁pens	-634
▁really	-635
mb	-636
ques	-637
▁only	-638
▁they	-639
fe	-640
ence	-641
▁cou	-642
Ça	-643
▁af	-644
▁sem	-645
ather	-646
riend	-647
▁peut	-648
▁quest	-649
▁right	-650
ole	-651
ved	-652
▁Ça	-653
▁éc	-654
▁bes	-655
▁vie	-656
▁voir	-657
▁quelque	-658
ud	-659
ool	-660
▁di	-661
self	-662
▁avons	-663
ild	-664
▁pi	-665
être	-666
▁Comment	-667
ées	-668
▁pet	-669
ought	-670
▁jour	-671
▁when	-672
ick	-673
éri	-674
▁ta	-675
ures	-676
▁exp	-677
▁pos	-678
▁deux	-679
▁monde	-680
▁besoin	-681
vez	-682
▁Is	-683
▁va	-684
▁Est	-685
▁déc	-686
arg	-687
ity	-688
▁sm	-689
ussi	-690
▁nouve	-691
▁demand	-692
▁In	-693
▁On	-694
▁bu	-695
▁Mon	-696
▁got	-697
ident	-698
▁encore	-699
▁parler	-700
iez	-701
ante	-702
▁speak	-703
ese	-704
sez	-705
▁day	-706
▁reg	-707
▁ses	-708
▁won	-709
▁book	-710
▁rien	-711
▁somet	-712
act	-713
ody	-714
▁acc	-715
▁bec	-716
▁how	-717
▁cela	-718
▁avait	-719
aid	-720
▁gu	-721
aiss	-722
▁int	-723
▁love	-724
▁voit	-725
▁sommes	-726
ît	-727
ach	-728
ert	-729
▁op	-730
aine	-731
vers	-732
▁bus	-733
▁pré	-734
▁tom	-735
▁lang	-736
▁prop	-737
erm	-738
▁wat	-739
ings	-740
▁Can	-741
▁lot	-742
jours	-743
était	-744
▁must	-745
ey	-746
tle	-747
reat	-748
▁bel	-749
▁fam	-750
▁new	-751
▁ret	-752
▁say	-753
▁toujours	-754
du	-755
▁cr	-756
▁où	-757
aime	-758
▁eat	-759
▁jus	-760
▁conn	-761
▁rest	-762
ds	-763
▁eu	-764
▁bon	-765
▁fut	-766
▁mes	-767
▁vis	-768
▁feel	-769
▁heure	-770
ieux	-771
ther	-772
▁bet	-773
▁home	-774
▁last	-775
▁take	-776
▁aller	-777
nt	-778
ich	-779
▁tw	-780
▁der	-781
▁dés	-782
▁enf	-783
▁our	-784
aient	-785
▁pouv	-786
▁something	-787
ôt	-788
▁If	-789
▁ye	-790
iens	-791
ough	-792
▁ask	-793
▁jou	-794
▁pri	-795
▁avez	-796
lement	-797
▁1	-798
ord	-799
red	-800
▁Ch	-801
▁ke	-802
▁pu	-803
ause	-804
ning	-805
ried	-806
▁Marie	-807
▁aussi	-808
▁maison	-809
▁Un	-810
ople	-811
▁sec	-812
▁sent	-813
▁friend	-814
pt	-815
én	-816
▁aw	-817
ents	-818
rait	-819
▁rec	-820
▁dois	-821
▁make	-822
▁doesn	-823
▁under	-824
ls	-825
itu	-826
▁fl	-827
▁vu	-828
▁way	-829
▁cons	-830
▁fois	-831
▁went	-832
▁money	-833
iz	-834
ts	-835
lez	-836
▁No	-837
▁ai	-838
▁là	-839
▁wr	-840
jour	-841
▁nom	-842
▁back	-843
▁them	-844
▁again	-845
▁voiture	-846
▁dr	-847
▁Let	-848
▁Ple	-849
▁old	-850
▁plan	-851
▁play	-852
▁soit	-853
▁belie	-854
▁travail	-855
▁mo	-856
▁ans	-857
▁sch	-858
ction	-859
▁chez	-860
▁rend	-861
▁where	-862
hed	-863
▁As	-864
▁Si	-865
vent	-866
▁Who	-867
▁pay	-868
▁ten	-869
▁elle	-870
▁mont	-871
▁sort	-872
▁Please	-873
▁people	-874
▁anything	-875
og	-876
▁Jap	-877
▁aux	-878
▁fer	-879
illes	-880
étais	-881
▁said	-882
▁supp	-883
▁told	-884
▁vais	-885
tenant	-886
ié	-887
th	-888
ned	-889
▁id	-890
ouse	-891
▁cor	-892
argent	-893
▁avoir	-894
▁child	-895
▁night	-896
▁little	-897
▁regard	-898
jà	-899
▁im	-900
▁po	-901
▁sw	-902
arri	-903
erre	-904
read	-905
▁veu	-906
avais	-907
rents	-908
▁Tout	-909
▁déjà	-910
▁faut	-911
▁find	-912
▁quoi	-913
▁Where	-914
▁still	-915
▁school	-916
ér	-917
ace	-918
ats	-919
aux	-920
hui	-921
▁ac	-922
▁pa	-923
cont	-924
fore	-925
▁dét	-926
▁met	-927
▁sou	-928
▁cour	-929
▁hard	-930
▁other	-931
ome	-932
eurs	-933
▁Did	-934
▁pol	-935
▁sle	-936
▁try	-937
jourd	-938
▁Elles	-939
▁happen	-940
be	-941
ft	-942
▁K	-943
▁À	-944
▁gl	-945
▁dog	-946
▁min	-947
orrow	-948
▁call	-949
▁trou	-950
ek	-951
ty	-952
née	-953
bien	-954
riez	-955
ways	-956
▁mus	-957
▁rep	-958
▁Quel	-959
▁room	-960
▁house	-961
▁petit	-962
▁before	-963
▁thought	-964
anç	-965
rer	-966
▁Où	-967
irst	-968
▁gir	-969
▁mor	-970
▁rép	-971
▁two	-972
▁inte	-973
▁always	-974
▁rencont	-975
li	-976
ème	-977
oint	-978
▁occ	-979
ition	-980
▁week	-981
▁avant	-982
▁leave	-983
▁porte	-984
▁«	-985
cher	-986
oire	-987
▁tél	-988
rench	-989
▁coup	-990
▁disp	-991
▁fais	-992
▁made	-993
▁meet	-994
▁prom	-995
▁sans	-996
▁souv	-997
▁well	-998
ations	-999
▁plaît	-1000
▁quand	-1001
oc	-1002
ary	-1003
auv	-1004
ory	-1005
oth	-1006
▁end	-1007
▁fem	-1008
▁Engl	-1009
ention	-1010
▁heures	-1011
▁parents	-1012
▁maintenant	-1013
ms	-1014
ult	-1015
oses	-1016
pect	-1017
▁dép	-1018
▁fac	-1019
▁ache	-1020
▁dern	-1021
▁hand	-1022
▁même	-1023
▁notre	-1024
▁French	-1025
▁believe	-1026
ok	-1027
▁»	-1028
get	-1029
own	-1030
▁Fr	-1031
▁sc	-1032
asse	-1033
▁over	-1034
ançais	-1035
▁langu	-1036
▁aujourd	-1037
éd	-1038
ets	-1039
body	-1040
imes	-1041
▁gar	-1042
▁care	-1043
▁into	-1044
▁père	-1045
▁livre	-1046
▁place	-1047
▁question	-1048
né	-1049
vé	-1050
att	-1051
esp	-1052
ins	-1053
ros	-1054
ated	-1055
▁dep	-1056
▁eas	-1057
▁ess	-1058
▁lear	-1059
▁live	-1060
▁moin	-1061
▁prof	-1062
▁sure	-1063
▁happy	-1064
▁probl	-1065
▁today	-1066
▁wanted	-1067
▁everything	-1068
anc	-1069
ful	-1070
ily	-1071
uck	-1072
çon	-1073
tern	-1074
▁Qui	-1075
▁isn	-1076
▁mot	-1077
aimer	-1078
▁many	-1079
▁prem	-1080
▁pres	-1081
▁seul	-1082
▁simp	-1083
▁wait	-1084
▁alone	-1085
▁first	-1086
▁français	-1087
ex	-1088
vis	-1089
ager	-1090
ages	-1091
akes	-1092
ture	-1093
▁job	-1094
▁rem	-1095
ouvez	-1096
▁When	-1097
▁away	-1098
▁soir	-1099
▁Every	-1100
▁homme	-1101
▁sleep	-1102
▁father	-1103
▁English	-1104
▁underst	-1105
cl	-1106
cle	-1107
▁sû	-1108
ting	-1109
ving	-1110
▁Par	-1111
▁buy	-1112
▁inv	-1113
▁pat	-1114
ready	-1115
sible	-1116
▁Avez	-1117
▁disc	-1118
▁life	-1119
▁took	-1120
tement	-1121
▁bonne	-1122
▁chien	-1123
▁toute	-1124
▁better	-1125
▁toutes	-1126
▁already	-1127
▁nothing	-1128
ank	-1129
ict	-1130
ider	-1131
▁ref	-1132
▁viv	-1133
école	-1134
▁Have	-1135
▁conf	-1136
▁late	-1137
▁pris	-1138
▁trois	-1139
▁trouv	-1140
aimerais	-1141
▁comment	-1142
▁enfants	-1143
cer	-1144
ris	-1145
près	-1146
▁ins	-1147
▁sol	-1148
acher	-1149
▁Pers	-1150
▁phot	-1151
▁rais	-1152
▁sens	-1153
▁great	-1154
▁mieux	-1155
▁their	-1156
ia	-1157
rez	-1158
ute	-1159
ves	-1160
œur	-1161
mber	-1162
rest	-1163
▁ass	-1164
▁cha	-1165
▁hur	-1166
▁tur	-1167
endre	-1168
▁nuit	-1169
▁puis	-1170
▁juste	-1171
▁laiss	-1172
▁passé	-1173
▁start	-1174
▁enough	-1175
▁Personne	-1176
ng	-1177
xt	-1178
acc	-1179
arr	-1180
▁Au	-1181
▁ca	-1182
▁dou	-1183
▁env	-1184
▁ide	-1185
▁voy	-1186
▁cond	-1187
▁done	-1188
▁give	-1189
▁port	-1190
▁prés	-1191
▁parle	-1192
▁three	-1193
▁demain	-1194
▁import	-1195
▁personne	-1196
▁tomorrow	-1197
ber	-1198
ché	-1199
ret	-1200
▁dû	-1201
▁fo	-1202
arly	-1203
▁Cel	-1204
▁cat	-1205
▁inc	-1206
▁mom	-1207
▁best	-1208
▁down	-1209
▁gens	-1210
▁left	-1211
▁stay	-1212
arrive	-1213
▁count	-1214
▁seule	-1215
▁because	-1216
ys	-1217
ffe	-1218
int	-1219
mble	-1220
▁put	-1221
▁lors	-1222
▁mind	-1223
▁pain	-1224
▁used	-1225
▁asked	-1226
▁assez	-1227
▁femme	-1228
▁fille	-1229
▁occup	-1230
▁venir	-1231
▁facile	-1232
▁partir	-1233
▁teacher	-1234
▁questions	-1235
ég	-1236
▁ho	-1237
▁ob	-1238
orry	-1239
érit	-1240
▁bou	-1241
▁hab	-1242
▁mag	-1243
oston	-1244
▁rain	-1245
▁drink	-1246
▁Boston	-1247
▁choses	-1248
▁diffic	-1249
▁prendre	-1250
▁without	-1251
▁travaill	-1252
▁understand	-1253
..	-1254
▁2	-1255
eau	-1256
igh	-1257
bles	-1258
ired	-1259
omme	-1260
▁aim	-1261
▁boy	-1262
▁cle	-1263
▁dro	-1264
▁emp	-1265
ience	-1266
▁cham	-1267
▁idea	-1268
▁kind	-1269
▁peur	-1270
▁préf	-1271
▁seen	-1272
▁veut	-1273
endant	-1274
▁moins	-1275
▁please	-1276
▁nouveau	-1277
min	-1278
ock	-1279
▁Es	-1280
▁bo	-1281
ches	-1282
endu	-1283
ente	-1284
ital	-1285
▁auc	-1286
▁cap	-1287
▁rou	-1288
▁saw	-1289
iques	-1290
▁doct	-1291
▁doit	-1292
▁door	-1293
▁hier	-1294
▁name	-1295
▁étud	-1296
▁Japan	-1297
▁sorry	-1298
▁thing	-1299
▁years	-1300
▁proble	-1301
▁things	-1302
▁Combien	-1303
▁voulais	-1304
ug	-1305
wn	-1306
ath	-1307
hab	-1308
jet	-1309
▁Ma	-1310
agne	-1311
avez	-1312
▁abs	-1313
▁bad	-1314
▁bre	-1315
▁tes	-1316
▁tri	-1317
▁vol	-1318
aking	-1319
ester	-1320
▁came	-1321
▁even	-1322
▁sing	-1323
▁tour	-1324
ertain	-1325
▁Cette	-1326
▁after	-1327
▁doing	-1328
▁essay	-1329
▁found	-1330
▁often	-1331
▁surpr	-1332
▁visit	-1333
▁watch	-1334
▁chance	-1335
▁manger	-1336
▁savoir	-1337
▁pensais	-1338
▁quelques	-1339
▁important	-1340
00	-1341
we	-1342
▁É	-1343
ted	-1344
uss	-1345
ince	-1346
raid	-1347
uses	-1348
▁All	-1349
▁Une	-1350
▁col	-1351
▁dec	-1352
▁imm	-1353
▁lik	-1354
▁mis	-1355
▁num	-1356
▁rés	-1357
ivers	-1358
▁busy	-1359
▁idée	-1360
▁sait	-1361
▁Quand	-1362
▁après	-1363
▁autre	-1364
▁crois	-1365
▁point	-1366
▁moment	-1367
▁trouve	-1368
▁looking	-1369
lé	-1370
ato	-1371
▁De	-1372
erve	-1373
util	-1374
▁His	-1375
▁cet	-1376
▁fai	-1377
▁far	-1378
▁gen	-1379
▁kne	-1380
▁may	-1381
▁str	-1382
▁why	-1383
orter	-1384
temps	-1385
▁dorm	-1386
▁keep	-1387
▁leur	-1388
▁lire	-1389
▁lost	-1390
▁pren	-1391
▁stud	-1392
▁walk	-1393
member	-1394
▁being	-1395
▁désol	-1396
▁water	-1397
▁France	-1398
▁afraid	-1399
▁letter	-1400
▁propos	-1401
▁retard	-1402
▁demandé	-1403
▁trouver	-1404
▁simplement	-1405
enc	-1406
idé	-1407
ical	-1408
iste	-1409
êter	-1410
▁Dan	-1411
▁ces	-1412
▁lun	-1413
▁use	-1414
ments	-1415
▁cold	-1416
▁ense	-1417
▁fort	-1418
▁open	-1419
▁show	-1420
▁small	-1421
▁wants	-1422
▁world	-1423
esterday	-1424
▁devrais	-1425
ba	-1426
les	-1427
ache	-1428
ends	-1429
este	-1430
form	-1431
ious	-1432
uire	-1433
▁May	-1434
▁bed	-1435
▁hot	-1436
▁cost	-1437
▁knew	-1438
▁next	-1439
▁pays	-1440
▁chang	-1441
▁entre	-1442
▁telle	-1443
▁vérit	-1444
▁which	-1445
▁young	-1446
▁depuis	-1447
▁semble	-1448
▁heureux	-1449
▁semaine	-1450
▁souvent	-1451
▁accident	-1452
▁dernière	-1453
▁interest	-1454
omp	-1455
ume	-1456
uth	-1457
arge	-1458
même	-1459
quer	-1460
teau	-1461
▁bor	-1462
▁fro	-1463
▁sal	-1464
▁tra	-1465
▁vos	-1466
autre	-1467
ister	-1468
▁Your	-1469
▁cher	-1470
▁ever	-1471
▁miss	-1472
▁mort	-1473
▁prob	-1474
▁rapp	-1475
▁compl	-1476
▁conse	-1477
▁contr	-1478
▁meill	-1479
▁Quelle	-1480
▁children	-1481
▁problème	-1482
▁remember	-1483
agn	-1484
ife	-1485
ize	-1486
nis	-1487
▁An	-1488
▁Re	-1489
▁ey	-1490
ject	-1491
▁adv	-1492
▁aff	-1493
aires	-1494
aisse	-1495
avant	-1496
homme	-1497
▁Cela	-1498
▁allé	-1499
▁easy	-1500
▁hear	-1501
▁swim	-1502
▁ready	-1503
▁study	-1504
▁truth	-1505
▁comple	-1506
▁possible	-1507
any	-1508
ark	-1509
gry	-1510
réc	-1511
▁sk	-1512
iend	-1513
nous	-1514
olog	-1515
opul	-1516
uter	-1517
▁beg	-1518
▁big	-1519
▁bri	-1520
▁fat	-1521
▁fun	-1522
▁hum	-1523
▁piè	-1524
avoir	-1525
entre	-1526
▁ceci	-1527
▁expl	-1528
▁inté	-1529
aurais	-1530
▁beaut	-1531
▁trans	-1532
▁wrong	-1533
▁devons	-1534
▁doctor	-1535
▁lettre	-1536
▁police	-1537
▁quelqu	-1538
▁savais	-1539
▁chambre	-1540
▁married	-1541
▁pourquoi	-1542
ote	-1543
ues	-1544
▁Be	-1545
▁mé	-1546
aide	-1547
oman	-1548
reux	-1549
▁art	-1550
▁dur	-1551
▁eff	-1552
▁ter	-1553
▁yet	-1554
ienne	-1555
▁dist	-1556
▁fall	-1557
▁mère	-1558
▁prêt	-1559
▁corre	-1560
▁early	-1561
▁jusqu	-1562
▁knows	-1563
▁perdu	-1564
▁around	-1565
▁petite	-1566
▁pouvez	-1567
▁sortir	-1568
▁famille	-1569
▁pendant	-1570
▁surpris	-1571
▁difficult	-1572
▁yesterday	-1573
az	-1574
eba	-1575
emp	-1576
oke	-1577
qui	-1578
str	-1579
▁St	-1580
▁ép	-1581
aise	-1582
angl	-1583
hone	-1584
iate	-1585
leur	-1586
llez	-1587
rant	-1588
▁nat	-1589
▁non	-1590
èrent	-1591
▁aime	-1592
▁hist	-1593
▁list	-1594
▁most	-1595
▁post	-1596
▁tard	-1597
▁year	-1598
atoeba	-1599
utilis	-1600
▁books	-1601
▁jours	-1602
▁photo	-1603
▁popul	-1604
▁trouvé	-1605
▁another	-1606
▁country	-1607
oh	-1608
ial	-1609
omm	-1610
per	-1611
rib	-1612
son	-1613
▁At	-1614
arth	-1615
utes	-1616
▁act	-1617
▁arr	-1618
▁dri	-1619
▁few	-1620
▁fil	-1621
▁red	-1622
▁rev	-1623
▁run	-1624
▁suc	-1625
▁tôt	-1626
aider	-1627
ermin	-1628
illed	-1629
ished	-1630
itude	-1631
rence	-1632
▁Puis	-1633
▁gros	-1634
▁hope	-1635
▁mauv	-1636
▁perm	-1637
▁pret	-1638
▁real	-1639
▁serv	-1640
▁stop	-1641
▁stup	-1642
▁true	-1643
▁télé	-1644
▁writ	-1645
▁break	-1646
▁deven	-1647
▁party	-1648
▁arrive	-1649
▁mother	-1650
▁myself	-1651
▁nombre	-1652
▁person	-1653
▁raison	-1654
▁vérité	-1655
▁Tatoeba	-1656
▁morning	-1657
▁profess	-1658
."	-1659
ail	-1660
cin	-1661
ell	-1662
▁ég	-1663
ater	-1664
ible	-1665
more	-1666
nent	-1667
▁Son	-1668
▁adm	-1669
▁beh	-1670
▁fav	-1671
▁hun	-1672
▁ind	-1673
▁Does	-1674
▁aren	-1675
▁gard	-1676
▁mist	-1677
▁pian	-1678
▁wind	-1679
▁Would	-1680
▁learn	-1681
▁matin	-1682
▁these	-1683
▁ville	-1684
anglais	-1685
▁croire	-1686
▁danger	-1687
▁matter	-1688
▁anymore	-1689
▁brother	-1690
▁diffici	-1691
▁friends	-1692
▁talking	-1693
▁happened	-1694
pl	-1695
ger	-1696
ral	-1697
été	-1698
▁Go	-1699
▁bi	-1700
▁fi	-1701
▁fu	-1702
iles	-1703
llig	-1704
umer	-1705
ères	-1706
▁Get	-1707
▁pap	-1708
▁sûr	-1709
▁thé	-1710
ances	-1711
pital	-1712
ution	-1713
▁chat	-1714
▁choi	-1715
▁cuis	-1716
▁mine	-1717
▁nice	-1718
▁opin	-1719
▁publ	-1720
▁quit	-1721
▁sous	-1722
vision	-1723
▁bless	-1724
▁class	-1725
▁passe	-1726
▁télép	-1727
▁arrivé	-1728
▁couldn	-1729
▁family	-1730
▁wonder	-1731
▁certain	-1732
▁problem	-1733
▁étaient	-1734
▁attention	-1735
▁difficile	-1736
?"	-1737
br	-1738
ué	-1739
amp	-1740
ctu	-1741
icy	-1742
toi	-1743
ète	-1744
▁To	-1745
alth	-1746
ited	-1747
ites	-1748
ives	-1749
jeun	-1750
llow	-1751
used	-1752
▁App	-1753
▁add	-1754
▁ami	-1755
▁caf	-1756
▁emb	-1757
▁gén	-1758
▁mer	-1759
▁six	-1760
▁vac	-1761
▁war	-1762
cient	-1763
▁angl	-1764
▁dont	-1765
▁food	-1766
▁gave	-1767
▁loin	-1768
▁mari	-1769
▁nour	-1770
▁same	-1771
▁sera	-1772
▁situ	-1773
▁soon	-1774
▁such	-1775
▁word	-1776
aurant	-1777
▁Japon	-1778
▁jeune	-1779
▁likes	-1780
▁lives	-1781
▁pièce	-1782
▁tired	-1783
alement	-1784
▁acheté	-1785
▁coming	-1786
▁faites	-1787
▁garçon	-1788
▁langue	-1789
▁livres	-1790
▁secret	-1791
▁voyage	-1792
▁himself	-1793
▁journée	-1794
▁minutes	-1795
▁pourrait	-1796
▁yourself	-1797
▁seulement	-1798
▁situation	-1799
▁restaurant	-1800
bé	-1801
gg	-1802
ip	-1803
ém	-1804
con	-1805
ied	-1806
led	-1807
yez	-1808
▁Am	-1809
cept	-1810
cess	-1811
iful	-1812
illé	-1813
ming	-1814
vert	-1815
îner	-1816
▁ann	-1817
▁bit	-1818
▁coû	-1819
▁din	-1820
▁déf	-1821
▁esp	-1822
▁feu	-1823
▁ord	-1824
▁vue	-1825
ences	-1826
heure	-1827
rions	-1828
▁amou	-1829
▁anim	-1830
▁chau	-1831
▁forg	-1832
▁four	-1833
▁free	-1834
▁fête	-1835
▁girl	-1836
▁méde	-1837
▁once	-1838
▁oubl	-1839
▁voud	-1840
▁yeux	-1841
▁appel	-1842
▁cours	-1843
▁diffé	-1844
▁froid	-1845
▁looks	-1846
▁makes	-1847
▁proch	-1848
▁table	-1849
▁those	-1850
▁autant	-1851
▁change	-1852
▁filles	-1853
▁having	-1854
▁quelle	-1855
▁travaille	-1856
▁travailler	-1857
ced	-1858
its	-1859
man	-1860
qué	-1861
til	-1862
éro	-1863
▁10	-1864
▁sl	-1865
▁ty	-1866
ared	-1867
cent	-1868
ness	-1869
osed	-1870
▁Vou	-1871
▁cin	-1872
▁cop	-1873
▁its	-1874
▁thr	-1875
asser	-1876
onnes	-1877
rends	-1878
stant	-1879
▁Some	-1880
▁cook	-1881
▁mang	-1882
▁parf	-1883
▁prin	-1884
▁sœur	-1885
▁tête	-1886
▁vers	-1887
riture	-1888
▁Paris	-1889
▁aider	-1890
▁donné	-1891
▁haven	-1892
▁might	-1893
▁piano	-1894
▁vivre	-1895
▁bought	-1896
▁inform	-1897
▁listen	-1898
▁sister	-1899
▁turned	-1900
▁voulez	-1901
▁acheter	-1902
▁demande	-1903
▁opinion	-1904
▁started	-1905
▁intellig	-1906
▁comprendre	-1907
▁z	-1908
aie	-1909
era	-1910
exp	-1911
ian	-1912
not	-1913
ras	-1914
▁Ex	-1915
▁Sp	-1916
▁ap	-1917
ates	-1918
ball	-1919
iers	-1920
pped	-1921
ward	-1922
▁Ces	-1923
▁Nob	-1924
▁Peu	-1925
▁aur	-1926
▁fen	-1927
▁mil	-1928
▁mou	-1929
▁sac	-1930
▁sub	-1931
▁win	-1932
ating	-1933
ettes	-1934
ghter	-1935
▁bicy	-1936
▁exam	-1937
▁high	-1938
▁luck	-1939
▁news	-1940
▁près	-1941
▁resp	-1942
▁sick	-1943
▁vite	-1944
accord	-1945
aissez	-1946
erreur	-1947
gether	-1948
ignore	-1949
jeuner	-1950
▁Donne	-1951
▁conna	-1952
▁diffe	-1953
▁frère	-1954
▁light	-1955
▁parce	-1956
▁peine	-1957
▁reven	-1958
▁seems	-1959
▁since	-1960
▁times	-1961
▁while	-1962
▁woman	-1963
▁autres	-1964
▁called	-1965
▁cannot	-1966
▁grande	-1967
▁window	-1968
▁devrait	-1969
▁laisser	-1970
▁meeting	-1971
▁médecin	-1972
▁premier	-1973
▁présent	-1974
▁voulait	-1975
▁Everyone	-1976
▁intéress	-1977
▁together	-1978
▁beautiful	-1979
▁longtemps	-1980
▁téléphone	-1981
▁nourriture	-1982
lu	-1983
enf	-1984
ige	-1985
ler	-1986
lui	-1987
ork	-1988
raz	-1989
▁Sa	-1990
anté	-1991
atis	-1992
ines	-1993
most	-1994
orts	-1995
ured	-1996
▁exc	-1997
▁hon	-1998
▁own	-1999
▁pic	-2000
▁vas	-2001
elles	-2002
rière	-2003
▁Give	-2004
▁aide	-2005
▁answ	-2006
▁bout	-2007
▁days	-2008
▁doll	-2009
▁face	-2010
▁hair	-2011
▁joue	-2012
▁noir	-2013
▁pois	-2014
▁prie	-2015
▁prod	-2016
▁sois	-2017
▁sour	-2018
▁turn	-2019
ustral	-2020
▁These	-2021
▁favor	-2022
▁heart	-2023
▁hours	-2024
▁until	-2025
▁write	-2026
▁étudi	-2027
ication	-2028
▁colère	-2029
▁désolé	-2030
▁expect	-2031
▁rester	-2032
▁tennis	-2033
▁utilis	-2034
▁déteste	-2035
▁entendu	-2036
▁getting	-2037
▁reading	-2038
▁station	-2039
▁working	-2040
▁complete	-2041
▁nouvelle	-2042
▁première	-2043
gn	-2044
iel	-2045
▁Sh	-2046
▁ir	-2047
▁ru	-2048
▁él	-2049
alis	-2050
ffee	-2051
ided	-2052
inté	-2053
lect	-2054
llem	-2055
utôt	-2056
veux	-2057
▁Our	-2058
▁bag	-2059
▁bir	-2060
▁bro	-2061
▁leg	-2062
▁nos	-2063
▁pun	-2064
▁sho	-2065
▁soi	-2066
▁sun	-2067
▁tre	-2068
▁vit	-2069
illez	-2070
iment	-2071
ureau	-2072
▁Dans	-2073
▁Germ	-2074
▁Take	-2075
▁café	-2076
▁eyes	-2077
▁hate	-2078
▁lait	-2079
▁mois	-2080
▁sold	-2081
▁suiv	-2082
▁trad	-2083
▁vois	-2084
▁wasn	-2085
appréc	-2086
iction	-2087
illage	-2088
▁black	-2089
▁dîner	-2090
▁exact	-2091
▁fatig	-2092
▁glass	-2093
▁heard	-2094
▁rouge	-2095
▁story	-2096
▁sujet	-2097
▁vient	-2098
▁écrit	-2099
ression	-2100
▁Laisse	-2101
▁Nobody	-2102
▁attend	-2103
▁aucune	-2104
▁bureau	-2105
▁coffee	-2106
▁dinner	-2107
▁erreur	-2108
▁lorsqu	-2109
▁scient	-2110
▁trying	-2111
▁anglais	-2112
▁bicycle	-2113
▁cheveux	-2114
▁travers	-2115
▁waiting	-2116
▁finished	-2117
▁language	-2118
▁meilleur	-2119
▁apprendre	-2120
uv	-2121
...	-2122
ann	-2123
lse	-2124
oss	-2125
ron	-2126
rée	-2127
rés	-2128
vel	-2129
vie	-2130
élo	-2131
▁Al	-2132
▁Di	-2133
▁fa	-2134
▁lu	-2135
▁ni	-2136
ably	-2137
ayla	-2138
hors	-2139
iner	-2140
irai	-2141
port	-2142
ream	-2143
rire	-2144
rist	-2145
stru	-2146
èmes	-2147
▁Her	-2148
▁One	-2149
▁arg	-2150
▁cal	-2151
▁cir	-2152
▁dau	-2153
▁dix	-2154
▁fit	-2155
▁idi	-2156
▁rel	-2157
▁réf	-2158
▁tax	-2159
prise	-2160
rible	-2161
▁Come	-2162
▁born	-2163
▁each	-2164
▁else	-2165
▁exac	-2166
▁film	-2167
▁fini	-2168
▁gent	-2169
▁glad	-2170
▁leav	-2171
▁less	-2172
▁mess	-2173
▁pied	-2174
▁rich	-2175
▁sign	-2176
▁trip	-2177
▁wife	-2178
▁wish	-2179
espère	-2180
▁Could	-2181
▁Layla	-2182
▁exist	-2183
▁jouer	-2184
▁month	-2185
▁music	-2186
▁tried	-2187
▁answer	-2188
▁anyone	-2189
▁chemin	-2190
▁follow	-2191
▁mettre	-2192
▁number	-2193
▁occupé	-2194
▁office	-2195
▁partie	-2196
▁plutôt	-2197
▁pretty	-2198
▁second	-2199
habitude	-2200
▁pouvoir	-2201
▁presque	-2202
▁suppose	-2203
▁Japanese	-2204
▁daughter	-2205
em	-2206
ib	-2207
eep	-2208
elt	-2209
oon	-2210
rir	-2211
▁Ar	-2212
▁Se	-2213
▁TV	-2214
▁év	-2215
atre	-2216
ever	-2217
fort	-2218
iver	-2219
mmer	-2220
ower	-2221
oyer	-2222
▁Joh	-2223
▁ain	-2224
▁déb	-2225
▁fau	-2226
▁hor	-2227
▁men	-2228
▁plu	-2229
▁ris	-2230
▁sus	-2231
aille	-2232
avait	-2233
oking	-2234
where	-2235
▁Peux	-2236
▁amie	-2237
▁conv	-2238
▁cœur	-2239
▁empl	-2240
▁fast	-2241
▁felt	-2242
▁fore	-2243
▁head	-2244
▁hurt	-2245
▁lieu	-2246
▁past	-2247
▁suff	-2248
▁sûre	-2249
▁wear	-2250
▁arriv	-2251
▁aucun	-2252
▁belle	-2253
▁cause	-2254
▁chant	-2255
▁girls	-2256
▁hands	-2257
▁imméd	-2258
▁lived	-2259
▁pensé	-2260
▁phone	-2261
▁prend	-2262
▁advice	-2263
▁compte	-2264
▁contre	-2265
▁dehors	-2266
▁forget	-2267
▁future	-2268
▁health	-2269
▁living	-2270
▁malade	-2271
▁oublié	-2272
▁serait	-2273
avantage	-2274
▁combien	-2275
▁company	-2276
▁connais	-2277
▁correct	-2278
▁dollars	-2279
▁mauvais	-2280
▁pouvons	-2281
▁through	-2282
▁weather	-2283
▁pourrais	-2284
▁regarder	-2285
▁thinking	-2286
▁tellement	-2287
io	-2288
ze	-2289
aby	-2290
ane	-2291
enn	-2292
ira	-2293
irt	-2294
occ	-2295
tur	-2296
urg	-2297
uro	-2298
usé	-2299
▁Pr	-2300
▁ev	-2301
▁sn	-2302
▁vi	-2303
ains	-2304
aite	-2305
arde	-2306
asin	-2307
ides	-2308
igne	-2309
êtes	-2310
▁Des	-2311
▁New	-2312
▁ago	-2313
▁air	-2314
▁bar	-2315
▁cut	-2316
▁fig	-2317
▁fou	-2318
▁rap	-2319
▁réc	-2320
▁sau	-2321
▁sil	-2322
▁ste	-2323
▁usu	-2324
adore	-2325
aller	-2326
ateur	-2327
atisf	-2328
aught	-2329
enses	-2330
ettre	-2331
meric	-2332
tures	-2333
▁John	-2334
▁Just	-2335
▁Peut	-2336
▁Veux	-2337
▁ball	-2338
▁bill	-2339
▁fell	-2340
▁fils	-2341
▁kiss	-2342
▁milk	-2343
▁prix	-2344
▁rent	-2345
▁soci	-2346
▁succ	-2347
▁séri	-2348
▁tant	-2349
▁temp	-2350
▁vélo	-2351
quelle	-2352
▁angry	-2353
▁arrêt	-2354
▁devez	-2355
▁dress	-2356
▁fruit	-2357
▁inter	-2358
▁mange	-2359
▁nager	-2360
▁payer	-2361
▁répon	-2362
▁santé	-2363
▁spend	-2364
▁Americ	-2365
▁almost	-2366
▁appris	-2367
▁become	-2368
▁behind	-2369
▁chaque	-2370
▁commen	-2371
▁commun	-2372
▁dormir	-2373
▁laissé	-2374
▁public	-2375
▁rendre	-2376
▁retour	-2377
▁termin	-2378
▁arrived	-2379
▁careful	-2380
▁decided	-2381
▁diction	-2382
▁langues	-2383
▁manière	-2384
▁respect	-2385
▁respons	-2386
▁someone	-2387
▁village	-2388
▁connaiss	-2389
▁déjeuner	-2390
▁ensemble	-2391
▁davantage	-2392
▁everybody	-2393
▁problèmes	-2394
gy	-2395
uf	-2396
cul	-2397
isc	-2398
joy	-2399
lot	-2400
nel	-2401
oie	-2402
par	-2403
rog	-2404
ène	-2405
éré	-2406
▁Sm	-2407
▁nu	-2408
▁sy	-2409
▁Ét	-2410
ails	-2411
airs	-2412
aken	-2413
apon	-2414
assé	-2415
duct	-2416
enir	-2417
enne	-2418
erai	-2419
oyez	-2420
ween	-2421
▁Dis	-2422
▁Not	-2423
▁bat	-2424
▁cri	-2425
▁cry	-2426
▁dém	-2427
▁fon	-2428
▁néc	-2429
▁vin	-2430
ables	-2431
anche	-2432
avons	-2433
istes	-2434
range	-2435
resse	-2436
▁Tell	-2437
▁Tous	-2438
▁able	-2439
▁actu	-2440
▁chem	-2441
▁died	-2442
▁fire	-2443
▁font	-2444
▁game	-2445
▁imag	-2446
▁mots	-2447
▁parv	-2448
▁reas	-2449
▁surv	-2450
ternet	-2451
▁Which	-2452
▁ainsi	-2453
▁celui	-2454
▁close	-2455
▁exper	-2456
▁large	-2457
▁mangé	-2458
▁pleas	-2459
▁quite	-2460
▁riche	-2461
▁sound	-2462
▁stand	-2463
▁vieux	-2464
▁whole	-2465
▁words	-2466
▁worry	-2467
usement	-2468
▁Christ	-2469
▁dispos	-2470
▁enfant	-2471
▁forgot	-2472
▁killed	-2473
▁nature	-2474
▁necess	-2475
▁nécess	-2476
▁puisse	-2477
▁wouldn	-2478
▁arriver	-2479
▁between	-2480
▁commenc	-2481
▁content	-2482
▁devriez	-2483
▁exactly	-2484
▁patient	-2485
▁peuvent	-2486
▁derrière	-2487
▁heureuse	-2488
▁laquelle	-2489
▁probable	-2490
▁immédiate	-2491
▁nouvelles	-2492
▁surprised	-2493
▁interested	-2494
▁rencontrer	-2495
ah	-2496
dd	-2497
di	-2498
so	-2499
uy	-2500
ât	-2501
év	-2502
aim	-2503
ash	-2504
dit	-2505
ear	-2506
idi	-2507
isé	-2508
mon	-2509
nes	-2510
rap	-2511
ush	-2512
▁Mr	-2513
▁Tr	-2514
▁bé	-2515
arer	-2516
ched	-2517
erci	-2518
omen	-2519
roit	-2520
urer	-2521
çons	-2522
▁Mes	-2523
▁ill	-2524
▁rad	-2525
▁set	-2526
amour	-2527
ative	-2528
ision	-2529
othes	-2530
uteur	-2531
êcher	-2532
▁Keep	-2533
▁craz	-2534
▁dark	-2535
▁dess	-2536
▁donc	-2537
▁faim	-2538
▁five	-2539
▁foot	-2540
▁grow	-2541
▁heav	-2542
▁mour	-2543
▁pauv	-2544
▁then	-2545
▁tick	-2546
▁venu	-2547
▁vide	-2548
▁wine	-2549
amment	-2550
iendra	-2551
semble	-2552
▁Notre	-2553
▁appre	-2554
▁bière	-2555
▁chaud	-2556
▁envie	-2557
▁fleur	-2558
▁frapp	-2559
▁fumer	-2560
▁guess	-2561
▁known	-2562
▁order	-2563
▁ordin	-2564
▁store	-2565
▁works	-2566
▁yours	-2567
▁étais	-2568
importe	-2569
ination	-2570
▁Voulez	-2571
▁allons	-2572
▁animal	-2573
▁became	-2574
▁boulot	-2575
▁couple	-2576
▁devoir	-2577
▁longer	-2578
▁marche	-2579
▁object	-2580
▁others	-2581
▁quatre	-2582
▁satisf	-2583
▁against	-2584
▁connaît	-2585
▁fatigué	-2586
▁fenêtre	-2587
▁lorsque	-2588
▁magasin	-2589
▁musique	-2590
▁pouvait	-2591
▁produit	-2592
▁tonight	-2593
▁trouble	-2594
▁histoire	-2595
▁prochain	-2596
▁scientif	-2597
▁students	-2598
▁swimming	-2599
▁exactement	-2600
▁nécessaire	-2601
▁professeur	-2602
▁immédiatement	-2603
0.	-2604
aw	-2605
cé	-2606
hô	-2607
na	-2608
ph	-2609
ss	-2610
yo	-2611
çu	-2612
▁â	-2613
ask	-2614
bes	-2615
bli	-2616
cte	-2617
fer	-2618
ili	-2619
oor	-2620
oud	-2621
oyé	-2622
tez	-2623
unk	-2624
œuf	-2625
▁Oh	-2626
▁ju	-2627
ards	-2628
bres	-2629
fast	-2630
fect	-2631
ists	-2632
ized	-2633
less	-2634
okyo	-2635
ones	-2636
ries	-2637
érée	-2638
étud	-2639
▁Exc	-2640
▁Ton	-2641
▁Veu	-2642
▁bur	-2643
▁cam	-2644
▁dél	-2645
▁eng	-2646
▁kid	-2647
▁lég	-2648
▁med	-2649
▁pie	-2650
▁rac	-2651
▁rum	-2652
▁val	-2653
ieurs	-2654
ouver	-2655
union	-2656
urope	-2657
▁amis	-2658
▁cinq	-2659
▁city	-2660
▁dest	-2661
▁half	-2662
▁join	-2663
▁park	-2664
▁poor	-2665
▁préc	-2666
▁prép	-2667
▁prév	-2668
▁rare	-2669
▁safe	-2670
▁sand	-2671
▁song	-2672
▁tele	-2673
iments	-2674
ouvrir	-2675
▁Allez	-2676
▁Tokyo	-2677
▁agree	-2678
▁clean	-2679
▁confi	-2680
▁crazy	-2681
▁death	-2682
▁earth	-2683
▁enjoy	-2684
▁façon	-2685
▁front	-2686
▁idiot	-2687
▁leurs	-2688
▁lucky	-2689
▁mains	-2690
▁plais	-2691
▁polit	-2692
▁press	-2693
▁route	-2694
▁savez	-2695
▁sorte	-2696
▁sucre	-2697
▁teach	-2698
▁touch	-2699
▁trave	-2700
▁verre	-2701
arrêter	-2702
lfriend	-2703
llemand	-2704
llement	-2705
ospital	-2706
▁Pouvez	-2707
▁chauss	-2708
▁classe	-2709
▁direct	-2710
▁making	-2711
▁reconn	-2712
▁strong	-2713
▁transl	-2714
apprécie	-2715
▁Austral	-2716
▁appreci	-2717
▁dernier	-2718
▁efforts	-2719
▁enseign	-2720
▁essayer	-2721
▁serious	-2722
▁student	-2723
▁Veuillez	-2724
▁amoureux	-2725
▁commencé	-2726
▁devrions	-2727
▁vacances	-2728
▁watching	-2729
▁languages	-2730
▁rencontré	-2731
▁télévision	-2732
▁information	-2733
▁intelligent	-2734
cu	-2735
là	-2736
ny	-2737
cep	-2738
gar	-2739
lly	-2740
ove	-2741
rat	-2742
ric	-2743
uel	-2744
ève	-2745
ôle	-2746
▁Ah	-2747
▁Et	-2748
▁gâ	-2749
amed	-2750
ande	-2751
eler	-2752
oici	-2753
olie	-2754
rend	-2755
rête	-2756
user	-2757
âche	-2758
écur	-2759
▁Now	-2760
▁amb	-2761
▁cit	-2762
▁cul	-2763
▁fix	-2764
▁gag	-2765
▁lum	-2766
▁méd	-2767
▁pou	-2768
▁tim	-2769
▁vir	-2770
▁éch	-2771
ither	-2772
naire	-2773
outer	-2774
▁Dieu	-2775
▁Fais	-2776
▁Lors	-2777
▁also	-2778
▁baby	-2779
▁beer	-2780
▁bébé	-2781
▁cent	-2782
▁char	-2783
▁coll	-2784
▁crit	-2785
▁date	-2786
▁dipl	-2787
▁fact	-2788
▁fish	-2789
▁lose	-2790
▁math	-2791
▁mean	-2792
▁near	-2793
▁pron	-2794
▁rece	-2795
▁shot	-2796
▁sout	-2797
▁suit	-2798
▁tent	-2799
▁type	-2800
ranger	-2801
▁Comme	-2802
▁Earth	-2803
▁Maybe	-2804
▁Terre	-2805
▁Thank	-2806
▁aimer	-2807
▁alors	-2808
▁appro	-2809
▁birth	-2810
▁chats	-2811
▁choix	-2812
▁comes	-2813
▁dream	-2814
▁ferai	-2815
▁hotel	-2816
▁japon	-2817
▁later	-2818
▁libre	-2819
▁lunch	-2820
▁magaz	-2821
▁movie	-2822
▁parlé	-2823
▁poser	-2824
▁retur	-2825
▁sandw	-2826
▁sense	-2827
▁serai	-2828
▁sport	-2829
▁viens	-2830
ossible	-2831
écurité	-2832
érience	-2833
▁accept	-2834
▁caught	-2835
▁chante	-2836
▁devant	-2837
▁donner	-2838
▁easily	-2839
▁embarr	-2840
▁essayé	-2841
▁hommes	-2842
▁hungry	-2843
▁marché	-2844
▁rapide	-2845
▁rather	-2846
▁recher	-2847
▁saying	-2848
▁serais	-2849
▁stupid	-2850
▁summer	-2851
▁thinks	-2852
▁chemise	-2853
▁compris	-2854
▁contrib	-2855
▁cuisine	-2856
▁dispose	-2857
▁désolée	-2858
▁endroit	-2859
▁leaving	-2860
▁playing	-2861
▁pouvais	-2862
▁regarde	-2863
▁réunion	-2864
▁telling	-2865
▁voulons	-2866
▁written	-2867
▁conduire	-2868
▁favorite	-2869
▁hospital	-2870
▁probably	-2871
▁sleeping	-2872
▁terrible	-2873
▁voudrais	-2874
▁different	-2875
▁personnes	-2876
▁ressemble	-2877
▁girlfriend	-2878
hy	-2879
uc	-2880
zz	-2881
ett	-2882
gne	-2883
hor	-2884
ina	-2885
mas	-2886
olu	-2887
opp	-2888
rew	-2889
tel	-2890
ton	-2891
éli	-2892
îte	-2893
▁20	-2894
▁rê	-2895
▁sé	-2896
arre	-2897
ayer	-2898
blig	-2899
ceed	-2900
ffic	-2901
hist	-2902
ises	-2903
iter	-2904
léch	-2905
midi	-2906
othè	-2907
oubl	-2908
owed	-2909
rons	-2910
side	-2911
trer	-2912
âmes	-2913
ître	-2914
▁Cet	-2915
▁God	-2916
▁Sun	-2917
▁ban	-2918
▁cré	-2919
▁dim	-2920
▁dég	-2921
▁har	-2922
▁lis	-2923
▁loc	-2924
▁moy	-2925
▁poi	-2926
▁pot	-2927
▁riv	-2928
▁sit	-2929
▁spr	-2930
▁tot	-2931
aines	-2932
anish	-2933
ettez	-2934
ignor	-2935
iness	-2936
itted	-2937
owers	-2938
quipe	-2939
▁Ital	-2940
▁Jane	-2941
▁both	-2942
▁cake	-2943
▁cats	-2944
▁choc	-2945
▁dead	-2946
▁fine	-2947
▁fond	-2948
▁form	-2949
▁hour	-2950
▁kept	-2951
▁pous	-2952
▁prud	-2953
▁requ	-2954
▁ride	-2955
▁rock	-2956
▁seem	-2957
▁slow	-2958
▁souh	-2959
▁stat	-2960
▁taxi	-2961
▁team	-2962
▁thir	-2963
▁town	-2964
▁vend	-2965
autres	-2966
ediate	-2967
ientôt	-2968
ission	-2969
▁Dites	-2970
▁arrog	-2971
▁begin	-2972
▁boire	-2973
▁boîte	-2974
▁celle	-2975
▁chans	-2976
▁clear	-2977
▁colle	-2978
▁donne	-2979
▁droit	-2980
▁elles	-2981
▁habit	-2982
▁hurry	-2983
▁least	-2984
▁oblig	-2985
▁parti	-2986
▁pleuv	-2987
▁radio	-2988
▁rendu	-2989
▁serez	-2990
▁shirt	-2991
▁soyez	-2992
▁terre	-2993
▁trust	-2994
▁étiez	-2995
appelle	-2996
ternoon	-2997
ètement	-2998
▁Penses	-2999
▁charge	-3000
▁choice	-3001
▁concer	-3002
▁disapp	-3003
▁décidé	-3004
▁habite	-3005
▁looked	-3006
▁manque	-3007
▁montre	-3008
▁numéro	-3009
▁opened	-3010
▁passer	-3011
▁pauvre	-3012
▁penser	-3013
▁penses	-3014
▁prefer	-3015
▁propre	-3016
▁recomm	-3017
▁regret	-3018
▁savait	-3019
▁stayed	-3020
▁taking	-3021
▁ticket	-3022
▁address	-3023
▁anybody	-3024
▁capable	-3025
▁changer	-3026
▁concent	-3027
▁garçons	-3028
▁learned	-3029
▁mistake	-3030
▁Internet	-3031
▁computer	-3032
▁fonction	-3033
▁japonais	-3034
▁problems	-3035
▁sandwich	-3036
▁sécurité	-3037
▁confiance	-3038
▁embarrass	-3039
▁immediate	-3040
▁appreciate	-3041
▁completely	-3042
ef	-3043
ik	-3044
od	-3045
ps	-3046
bas	-3047
bor	-3048
hum	-3049
ics	-3050
omb	-3051
ows	-3052
rif	-3053
sib	-3054
tte	-3055
uer	-3056
▁gé	-3057
▁hô	-3058
▁né	-3059
aper	-3060
cial	-3061
cier	-3062
ensé	-3063
eter	-3064
ices	-3065
icle	-3066
icul	-3067
irer	-3068
isme	-3069
ités	-3070
ived	-3071
lent	-3072
onde	-3073
orth	-3074
resp	-3075
stit	-3076
unes	-3077
vant	-3078
âtre	-3079
éric	-3080
▁And	-3081
▁Any	-3082
▁Auc	-3083
▁Jim	-3084
▁Put	-3085
▁Ses	-3086
▁ble	-3087
▁bot	-3088
▁box	-3089
▁bât	-3090
▁den	-3091
▁div	-3092
▁dra	-3093
▁egg	-3094
▁eye	-3095
▁fus	-3096
▁inn	-3097
▁key	-3098
▁lau	-3099
▁mam	-3100
▁mit	-3101
▁mét	-3102
▁sel	-3103
▁whe	-3104
agnol	-3105
alité	-3106
asion	-3107
ilité	-3108
▁Stop	-3109
▁atte	-3110
▁coat	-3111
▁coin	-3112
▁dent	-3113
▁desc	-3114
▁dort	-3115
▁effe	-3116
▁ferm	-3117
▁fuck	-3118
▁gone	-3119
▁hasn	-3120
▁keys	-3121
▁kill	-3122
▁legs	-3123
▁mark	-3124
▁ment	-3125
▁mign	-3126
▁mill	-3127
▁parc	-3128
▁perd	-3129
▁pick	-3130
▁prep	-3131
▁sole	-3132
▁sugg	-3133
▁test	-3134
▁vaut	-3135
▁vict	-3136
▁viol	-3137
▁wash	-3138
ensive	-3139
▁Merci	-3140
▁Smith	-3141
▁Today	-3142
▁Voici	-3143
▁advis	-3144
▁began	-3145
▁broke	-3146
▁build	-3147
▁chape	-3148
▁chois	-3149
▁dange	-3150
▁drive	-3151
▁envir	-3152
▁floor	-3153
▁genre	-3154
▁impat	-3155
▁journ	-3156
▁malad	-3157
▁marry	-3158
▁mount	-3159
▁plain	-3160
▁poste	-3161
▁puiss	-3162
▁short	-3163
▁super	-3164
▁trait	-3165
▁treat	-3166
▁wrote	-3167
olution	-3168
▁Arrête	-3169
▁Europe	-3170
▁German	-3171
▁absent	-3172
▁allait	-3173
▁appelé	-3174
▁argent	-3175
▁arrêté	-3176
▁changé	-3177
▁fleurs	-3178
▁furent	-3179
▁grosse	-3180
▁inside	-3181
▁minute	-3182
▁needed	-3183
▁perdre	-3184
▁porter	-3185
▁tomber	-3186
▁travel	-3187
▁visite	-3188
accident	-3189
▁Certain	-3190
▁Spanish	-3191
▁bientôt	-3192
▁clothes	-3193
▁costume	-3194
▁courant	-3195
▁feeling	-3196
▁invited	-3197
▁marcher	-3198
▁message	-3199
▁picture	-3200
▁poisson	-3201
▁present	-3202
▁promise	-3203
▁préfère	-3204
▁rentrer	-3205
▁réfléch	-3206
▁shouldn	-3207
▁smoking	-3208
▁succeed	-3209
▁Pourriez	-3210
▁birthday	-3211
▁commence	-3212
▁parviens	-3213
▁sentence	-3214
▁utiliser	-3215
▁Everybody	-3216
▁afternoon	-3217
▁comprends	-3218
▁condition	-3219
▁dangerous	-3220
▁necessary	-3221
▁experience	-3222
▁facilement	-3223
▁impossible	-3224
▁complètement	-3225
▁probablement	-3226
by	-3227
mi	-3228
sc	-3229
ût	-3230
adm	-3231
ara	-3232
ata	-3233
dez	-3234
eff	-3235
erc	-3236
eth	-3237
ety	-3238
for	-3239
gan	-3240
ots	-3241
oun	-3242
pir	-3243
ram	-3244
rig	-3245
ury	-3246
usb	-3247
ède	-3248
ôté	-3249
œil	-3250
▁Af	-3251
▁US	-3252
▁cu	-3253
▁er	-3254
▁ve	-3255
agit	-3256
alle	-3257
clus	-3258
ener	-3259
enty	-3260
eure	-3261
iche	-3262
ilos	-3263
iven	-3264
oute	-3265
quel	-3266
ural	-3267
▁Oui	-3268
▁del	-3269
▁dir	-3270
▁enn	-3271
▁esc	-3272
▁gau	-3273
▁hat	-3274
▁ing	-3275
▁law	-3276
▁maj	-3277
▁opp	-3278
▁pen	-3279
▁rid	-3280
▁sea	-3281
▁top	-3282
▁voi	-3283
acked	-3284
année	-3285
ended	-3286
ility	-3287
mment	-3288
oitié	-3289
▁Here	-3290
▁bois	-3291
▁ceux	-3292
▁clés	-3293
▁conc	-3294
▁cute	-3295
▁côté	-3296
▁deal	-3297
▁décl	-3298
▁fera	-3299
▁hors	-3300
▁husb	-3301
▁libr	-3302
▁norm	-3303
▁réve	-3304
▁sell	-3305
▁snow	-3306
▁soul	-3307
essaie	-3308
oivent	-3309
▁aimes	-3310
▁bibli	-3311
▁blood	-3312
▁catch	-3313
▁const	-3314
▁dormi	-3315
▁eaten	-3316
▁fasse	-3317
▁heavy	-3318
▁innoc	-3319
▁invol	-3320
▁loved	-3321
▁needs	-3322
▁neige	-3323
▁nerve	-3324
▁pleut	-3325
▁prête	-3326
▁river	-3327
▁sembl	-3328
▁shoes	-3329
▁slept	-3330
▁smoke	-3331
▁spoke	-3332
▁stars	-3333
▁sugar	-3334
▁série	-3335
▁taken	-3336
▁takes	-3337
▁théor	-3338
▁tromp	-3339
▁weren	-3340
acheter	-3341
ertaine	-3342
iennent	-3343
univers	-3344
▁aurait	-3345
▁blessé	-3346
▁contin	-3347
▁course	-3348
▁devenu	-3349
▁emploi	-3350
▁femmes	-3351
▁gâteau	-3352
▁instru	-3353
▁invent	-3354
▁marier	-3355
▁moitié	-3356
▁pensez	-3357
▁photos	-3358
▁reason	-3359
▁revoir	-3360
▁répond	-3361
▁savent	-3362
▁simple	-3363
▁soleil	-3364
▁taille	-3365
▁talked	-3366
▁walked	-3367
▁écrire	-3368
▁équipe	-3369
histoire	-3370
▁Laissez	-3371
▁Lorsque	-3372
▁changed	-3373
▁chapeau	-3374
▁evening	-3375
▁explain	-3376
▁flowers	-3377
▁forward	-3378
▁husband	-3379
▁journal	-3380
▁manteau	-3381
▁moindre	-3382
▁occupée	-3383
▁parfois	-3384
▁support	-3385
▁terminé	-3386
▁veulent	-3387
▁wearing	-3388
intention	-3389
iversaire	-3390
▁conseils	-3391
▁discuter	-3392
▁entendre	-3393
▁everyone	-3394
▁feelings	-3395
▁learning	-3396
▁nombreux	-3397
▁souviens	-3398
▁supposed	-3399
▁breakfast	-3400
▁expensive	-3401
▁président	-3402
▁également	-3403
▁impression	-3404
▁ordinateur	-3405
▁immediately	-3406
▁interesting	-3407
ha	-3408
ma	-3409
gle	-3410
hec	-3411
idd	-3412
iré	-3413
ism	-3414
ken	-3415
oil	-3416
oux	-3417
ple	-3418
ray	-3419
rol	-3420
rou	-3421
ump	-3422
uve	-3423
▁um	-3424
Unis	-3425
ader	-3426
aged	-3427
ames	-3428
anto	-3429
aque	-3430
atch	-3431
ayez	-3432
dess	-3433
imag	-3434
ième	-3435
leep	-3436
meil	-3437
mère	-3438
onné	-3439
oupe	-3440
rase	-3441
reen	-3442
rets	-3443
road	-3444
ttes	-3445
ules	-3446
venu	-3447
work	-3448
▁Att	-3449
▁For	-3450
▁Mal	-3451
▁Non	-3452
▁Pas	-3453
▁Reg	-3454
▁Som	-3455
▁age	-3456
▁clé	-3457
▁cur	-3458
▁cél	-3459
▁die	-3460
▁eux	-3461
▁gun	-3462
▁hit	-3463
▁ils	-3464
▁inf	-3465
▁lie	-3466
▁mem	-3467
▁rob	-3468
▁rév	-3469
▁squ	-3470
▁swe	-3471
▁tor	-3472
▁urg	-3473
▁véc	-3474
▁zoo	-3475
▁âge	-3476
▁écl	-3477
aites	-3478
alent	-3479
anced	-3480
aster	-3481
brell	-3482
gment	-3483
ickly	-3484
igner	-3485
iling	-3486
iller	-3487
indre	-3488
inter	-3489
itive	-3490
ières	-3491
onner	-3492
onter	-3493
renez	-3494
rente	-3495
reuse	-3496
rieur	-3497
upart	-3498
▁Even	-3499
▁Main	-3500
▁Même	-3501
▁Rien	-3502
▁base	-3503
▁boys	-3504
▁cade	-3505
▁camp	-3506
▁case	-3507
▁clim	-3508
▁cous	-3509
▁full	-3510
▁gare	-3511
▁gets	-3512
▁goes	-3513
▁guys	-3514
▁hold	-3515
▁kids	-3516
▁mout	-3517
▁pire	-3518
▁self	-3519
▁shop	-3520
▁suic	-3521
▁tall	-3522
▁tree	-3523
▁vidé	-3524
atique	-3525
attend	-3526
ctions	-3527
idence	-3528
ildren	-3529
izarre	-3530
liquer	-3531
ointed	-3532
ormais	-3533
érique	-3534
▁Canad	-3535
▁Garde	-3536
▁Votre	-3537
▁allez	-3538
▁allée	-3539
▁balle	-3540
▁carry	-3541
▁carte	-3542
▁cross	-3543
▁dites	-3544
▁drunk	-3545
▁début	-3546
▁elect	-3547
▁ignor	-3548
▁impro	-3549
▁incon	-3550
▁laugh	-3551
▁moral	-3552
▁neigh	-3553
▁paper	-3554
▁parap	-3555
▁pieds	-3556
▁plays	-3557
▁pluie	-3558
▁pract	-3559
▁servi	-3560
▁smart	-3561
▁suite	-3562
▁tears	-3563
▁tenir	-3564
▁thank	-3565
▁toile	-3566
▁uncle	-3567
▁vieil	-3568
▁viend	-3569
▁États	-3570
ational	-3571
ctement	-3572
hôpital	-3573
instant	-3574
othèque	-3575
ération	-3576
▁Donnez	-3577
▁Monday	-3578
▁apolog	-3579
▁appréc	-3580
▁attrap	-3581
▁borrow	-3582
▁chocol	-3583
▁closed	-3584
▁crying	-3585
▁diplom	-3586
▁eating	-3587
▁ferais	-3588
▁invité	-3589
▁jambes	-3590
▁parlez	-3591
▁phrase	-3592
▁played	-3593
▁possib	-3594
▁projet	-3595
▁pronon	-3596
▁signif	-3597
▁speaks	-3598
▁succès	-3599
▁suffis	-3600
▁surviv	-3601
▁volont	-3602
▁worked	-3603
ièrement	-3604
étranger	-3605
▁command	-3606
▁compagn	-3607
▁concert	-3608
▁faisait	-3609
▁fortune	-3610
▁glasses	-3611
▁history	-3612
▁library	-3613
▁lumière	-3614
▁pleurer	-3615
▁plupart	-3616
▁popular	-3617
▁portait	-3618
▁product	-3619
▁quelcon	-3620
▁quickly	-3621
▁realize	-3622
▁revenir	-3623
▁rivière	-3624
▁service	-3625
▁sommeil	-3626
▁stupide	-3627
▁théorie	-3628
▁théâtre	-3629
▁umbrell	-3630
▁univers	-3631
▁writing	-3632
stituteur	-3633
▁building	-3634
▁certaine	-3635
▁complain	-3636
▁demander	-3637
▁discours	-3638
▁football	-3639
▁innocent	-3640
▁lunettes	-3641
▁magazine	-3642
▁mauvaise	-3643
▁mountain	-3644
▁préférée	-3645
▁répondre	-3646
▁studying	-3647
▁voitures	-3648
entreprise	-3649
▁Christmas	-3650
▁dangereux	-3651
▁désormais	-3652
▁plusieurs	-3653
▁sometimes	-3654
▁étudiants	-3655
▁Maintenant	-3656
▁chaussures	-3657
▁enseignant	-3658
▁rapidement	-3659
▁sentiments	-3660
▁bibliothèque	-3661
bs	-3662
lt	-3663
pé	-3664
▁'	-3665
000	-3666
agé	-3667
aka	-3668
ama	-3669
aps	-3670
ech	-3671
gue	-3672
met	-3673
ode	-3674
oid	-3675
pes	-3676
run	-3677
rès	-3678
rêt	-3679
ude	-3680
uge	-3681
ule	-3682
uté	-3683
éra	-3684
▁Pe	-3685
▁Éc	-3686
aill	-3687
ator	-3688
ceau	-3689
elez	-3690
ered	-3691
hood	-3692
icon	-3693
ined	-3694
inte	-3695
itch	-3696
luie	-3697
oilà	-3698
omas	-3699
orer	-3700
otid	-3701
quée	-3702
rang	-3703
rodu	-3704
room	-3705
ross	-3706
rown	-3707
tain	-3708
tres	-3709
▁Nos	-3710
▁Tur	-3711
▁ait	-3712
▁ash	-3713
▁bal	-3714
▁bas	-3715
▁cre	-3716
▁cup	-3717
▁deb	-3718
▁det	-3719
▁ext	-3720
▁flu	-3721
▁inj	-3722
▁jeu	-3723
▁lar	-3724
▁lic	-3725
▁ner	-3726
▁owe	-3727
▁pon	-3728
▁ran	-3729
▁rej	-3730
▁siè	-3731
agent	-3732
antes	-3733
areil	-3734
ateau	-3735
ately	-3736
ature	-3737
clock	-3738
ering	-3739
gress	-3740
iding	-3741
ieuse	-3742
occup	-3743
oudre	-3744
pagne	-3745
paper	-3746
quent	-3747
rases	-3748
ushed	-3749
êtres	-3750
▁Chin	-3751
▁Conn	-3752
▁Jean	-3753
▁Look	-3754
▁Will	-3755
▁With	-3756
▁bais	-3757
▁bike	-3758
▁choo	-3759
▁ciel	-3760
▁dogs	-3761
▁donn	-3762
▁draw	-3763
▁fout	-3764
▁hang	-3765
▁haut	-3766
▁jard	-3767
▁land	-3768
▁lend	-3769
▁move	-3770
▁nage	-3771
▁nett	-3772
▁oise	-3773
▁pier	-3774
▁poin	-3775
▁pool	-3776
▁priv	-3777
▁prot	-3778
▁remp	-3779
▁ress	-3780
▁sauf	-3781
▁send	-3782
▁stre	-3783
▁tran	-3784
▁view	-3785
▁vête	-3786
cepter	-3787
ourage	-3788
raient	-3789
stairs	-3790
▁Aucun	-3791
▁Soyez	-3792
▁Viens	-3793
▁aband	-3794
▁allés	-3795
▁amies	-3796
▁améli	-3797
▁autor	-3798
▁boute	-3799
▁dance	-3800
▁fallu	-3801
▁fight	-3802
▁gener	-3803
▁gives	-3804
▁liked	-3805
▁marié	-3806
▁older	-3807
▁oncle	-3808
▁ouver	-3809
▁plein	-3810
▁poids	-3811
▁price	-3812
▁shall	-3813
▁solve	-3814
▁tradu	-3815
▁usual	-3816
▁venus	-3817
atiques	-3818
essayer	-3819
istance	-3820
respond	-3821
▁Faites	-3822
▁Quelqu	-3823
▁Sunday	-3824
▁Thomas	-3825
▁abroad	-3826
▁autour	-3827
▁broken	-3828
▁cadeau	-3829
▁cancer	-3830
▁couver	-3831
▁double	-3832
▁effect	-3833
▁either	-3834
▁famous	-3835
▁figure	-3836
▁finish	-3837
▁groupe	-3838
▁guerre	-3839
▁jeunes	-3840
▁market	-3841
▁poison	-3842
▁prêter	-3843
▁quotid	-3844
▁report	-3845
▁réussi	-3846
▁seeing	-3847
▁single	-3848
▁speech	-3849
▁theory	-3850
attendre	-3851
▁advised	-3852
▁arrêter	-3853
▁article	-3854
▁chanson	-3855
▁courage	-3856
▁devenir	-3857
▁faisons	-3858
▁figured	-3859
▁herself	-3860
▁instant	-3861
▁manquer	-3862
▁montrer	-3863
▁outside	-3864
▁perfect	-3865
▁phrases	-3866
▁regardé	-3867
▁running	-3868
▁secrets	-3869
▁société	-3870
▁strange	-3871
▁usually	-3872
▁vieille	-3873
▁vouloir	-3874
▁weekend	-3875
▁whether	-3876
intérieur	-3877
▁affaires	-3878
▁dimanche	-3879
▁distance	-3880
▁montagne	-3881
▁patience	-3882
▁rappeler	-3883
▁résoudre	-3884
▁speaking	-3885
▁umbrella	-3886
▁whatever	-3887
expérience	-3888
▁commencer	-3889
▁direction	-3890
▁meilleure	-3891
▁parapluie	-3892
▁printemps	-3893
▁prochaine	-3894
▁rencontre	-3895
▁sentences	-3896
▁somewhere	-3897
▁correspond	-3898
▁dictionary	-3899
▁population	-3900
▁quelconque	-3901
▁television	-3902
▁dictionnaire	-3903
▁suffisamment	-3904
co	-3905
dé	-3906
gé	-3907
lo	-3908
ov	-3909
où	-3910
sh	-3911
sy	-3912
uk	-3913
èv	-3914
aff	-3915
ape	-3916
arm	-3917
ges	-3918
gie	-3919
ida	-3920
irm	-3921
key	-3922
ror	-3923
ual	-3924
urs	-3925
way	-3926
éch	-3927
▁11	-3928
▁By	-3929
▁Fe	-3930
▁Gr	-3931
▁Mi	-3932
▁OK	-3933
▁Pl	-3934
▁hy	-3935
▁ly	-3936
ales	-3937
arch	-3938
atif	-3939
book	-3940
cked	-3941
cter	-3942
ding	-3943
empl	-3944
fois	-3945
gles	-3946
igin	-3947
inda	-3948
irac	-3949
irez	-3950
isée	-3951
jets	-3952
land	-3953
ling	-3954
mell	-3955
oise	-3956
oken	-3957
oles	-3958
oney	-3959
onge	-3960
redi	-3961
reed	-3962
ters	-3963
usez	-3964
vern	-3965
yons	-3966
élic	-3967
œufs	-3968
▁201	-3969
▁Bob	-3970
▁Cor	-3971
▁Yes	-3972
▁brû	-3973
▁cru	-3974
▁fis	-3975
▁fur	-3976
▁guy	-3977
▁iss	-3978
▁jet	-3979
▁lac	-3980
▁lap	-3981
▁mur	-3982
▁opt	-3983
▁ouv	-3984
▁pom	-3985
▁pur	-3986
▁pén	-3987
▁ram	-3988
▁rée	-3989
▁rég	-3990
▁sex	-3991
▁sli	-3992
▁sup	-3993
▁tué	-3994
apped	-3995
après	-3996
iving	-3997
liqué	-3998
oiles	-3999
omise	-4000
ories	-4001
ortun	-4002
ouser	-4003
right	-4004
teaux	-4005
terre	-4006
▁Ceci	-4007
▁Kate	-4008
▁Lond	-4009
▁Mont	-4010
▁Show	-4011
▁Suis	-4012
▁York	-4013
▁afin	-4014
▁aimé	-4015
▁amus	-4016
▁band	-4017
▁body	-4018
▁bons	-4019
▁curi	-4020
▁eggs	-4021
▁embr	-4022
▁enem	-4023
▁gold	-4024
▁guit	-4025
▁hero	-4026
▁honn	-4027
▁jeux	-4028
▁levé	-4029
▁lies	-4030
▁meal	-4031
▁mens	-4032
▁myst	-4033
▁note	-4034
▁pard	-4035
▁payé	-4036
▁pein	-4037
▁pisc	-4038
▁pizz	-4039
▁pond	-4040
▁poss	-4041
▁prit	-4042
▁prov	-4043
▁repr	-4044
▁reçu	-4045
▁rire	-4046
▁risk	-4047
▁road	-4048
▁robe	-4049
▁sang	-4050
▁sauv	-4051
▁seat	-4052
▁skin	-4053
▁soft	-4054
▁soin	-4055
▁soup	-4056
▁star	-4057
▁tend	-4058
▁term	-4059
▁tomb	-4060
▁tuer	-4061
▁vase	-4062
▁vont	-4063
aliser	-4064
ateurs	-4065
dessus	-4066
esprit	-4067
friend	-4068
idered	-4069
ilosop	-4070
inform	-4071
itchen	-4072
nement	-4073
ources	-4074
ouvert	-4075
ressed	-4076
urance	-4077
écrire	-4078
▁Celui	-4079
▁Linda	-4080
▁Somet	-4081
▁Watch	-4082
▁along	-4083
▁appar	-4084
▁apple	-4085
▁avais	-4086
▁avoid	-4087
▁blanc	-4088
▁brill	-4089
▁charg	-4090
▁check	-4091
▁ciném	-4092
▁court	-4093
▁crime	-4094
▁croit	-4095
▁dents	-4096
▁deter	-4097
▁divor	-4098
▁gagne	-4099
▁honte	-4100
▁human	-4101
▁hôtel	-4102
▁leçon	-4103
▁lundi	-4104
▁march	-4105
▁moder	-4106
▁moyen	-4107
▁pause	-4108
▁persu	-4109
▁piece	-4110
▁power	-4111
▁quiet	-4112
▁resté	-4113
▁sight	-4114
▁smell	-4115
▁souff	-4116
▁tombé	-4117
▁twice	-4118
▁using	-4119
▁video	-4120
▁vidéo	-4121
▁worse	-4122
▁worth	-4123
▁échec	-4124
attends	-4125
iconque	-4126
▁Excuse	-4127
▁Prenez	-4128
▁United	-4129
▁across	-4130
▁asleep	-4131
▁avance	-4132
▁baiser	-4133
▁bateau	-4134
▁cherch	-4135
▁danser	-4136
▁dépend	-4137
▁entend	-4138
▁envoyé	-4139
▁gagner	-4140
▁gauche	-4141
▁govern	-4142
▁honest	-4143
▁ignore	-4144
▁intern	-4145
▁jardin	-4146
▁lesson	-4147
▁mienne	-4148
▁missed	-4149
▁ouvert	-4150
▁pommes	-4151
▁ponctu	-4152
▁portes	-4153
▁prison	-4154
▁punctu	-4155
▁rendez	-4156
▁return	-4157
▁sommet	-4158
▁spoken	-4159
▁spring	-4160
▁thirty	-4161
▁tranqu	-4162
▁vivent	-4163
▁étions	-4164
airement	-4165
allemand	-4166
fortable	-4167
▁America	-4168
▁Arrêtez	-4169
▁Aujourd	-4170
▁Chinese	-4171
▁accused	-4172
▁adresse	-4173
▁allowed	-4174
▁animaux	-4175
▁ashamed	-4176
▁attrapé	-4177
▁augment	-4178
▁bizarre	-4179
▁chanter	-4180
▁cherche	-4181
▁choisir	-4182
▁conseil	-4183
▁constru	-4184
▁convain	-4185
▁cooking	-4186
▁distrib	-4187
▁docteur	-4188
▁driving	-4189
▁environ	-4190
▁finally	-4191
▁introdu	-4192
▁kitchen	-4193
▁nervous	-4194
▁parlent	-4195
▁piscine	-4196
▁pleased	-4197
▁propres	-4198
▁préféré	-4199
▁raisons	-4200
▁réponse	-4201
▁success	-4202
▁suspect	-4203
▁traffic	-4204
▁Certains	-4205
▁Children	-4206
▁Pourrais	-4207
▁actually	-4208
▁attendre	-4209
▁business	-4210
▁bâtiment	-4211
▁comporte	-4212
▁difficul	-4213
▁décision	-4214
▁détermin	-4215
▁expected	-4216
▁involved	-4217
▁mistakes	-4218
▁pleuvoir	-4219
▁prepared	-4220
▁solution	-4221
▁surprise	-4222
▁vacation	-4223
▁Australia	-4224
▁découvert	-4225
▁recherche	-4226
▁travaillé	-4227
▁vêtements	-4228
▁entreprise	-4229
▁government	-4230
▁permission	-4231
▁understood	-4232
▁proposition	-4233
▁correctement	-4234
▁disappointed	-4235
!"	-4236
af	-4237
fu	-4238
of	-4239
ta	-4240
ub	-4241
éf	-4242
abb	-4243
acy	-4244
acé	-4245
aul	-4246
awa	-4247
cip	-4248
cue	-4249
emb	-4250
ene	-4251
erv	-4252
eum	-4253
ilt	-4254
jou	-4255
lev	-4256
lic	-4257
llo	-4258
mbl	-4259
nit	-4260
ogn	-4261
oli	-4262
olé	-4263
sel	-4264
set	-4265
vec	-4266
vén	-4267
âle	-4268
èle	-4269
▁?"	-4270
▁Ap	-4271
▁Br	-4272
▁So	-4273
▁Te	-4274
▁hâ	-4275
▁py	-4276
▁rè	-4277
▁én	-4278
ague	-4279
ancy	-4280
aste	-4281
atin	-4282
cell	-4283
chon	-4284
ency	-4285
ened	-4286
enez	-4287
ergy	-4288
gnée	-4289
head	-4290
heur	-4291
ians	-4292
icip	-4293
idée	-4294
iest	-4295
iger	-4296
illa	-4297
imum	-4298
ingt	-4299
irre	-4300
line	-4301
ngle	-4302
omne	-4303
onna	-4304
oque	-4305
pose	-4306
père	-4307
reas	-4308
teen	-4309
ults	-4310
urch	-4311
ureu	-4312
usan	-4313
usse	-4314
éner	-4315
êché	-4316
▁Bon	-4317
▁But	-4318
▁Col	-4319
▁Cro	-4320
▁Fri	-4321
▁Pri	-4322
▁Pro	-4323
▁See	-4324
▁Spe	-4325
▁anc	-4326
▁ate	-4327
▁ath	-4328
▁cas	-4329
▁dam	-4330
▁def	-4331
▁equ	-4332
▁fly	-4333
▁fre	-4334
▁gas	-4335
▁lim	-4336
▁log	-4337
▁mad	-4338
▁mos	-4339
▁neu	-4340
▁oui	-4341
▁rue	-4342
▁shy	-4343
▁sky	-4344
▁sty	-4345
▁tea	-4346
▁tex	-4347
▁tun	-4348
aleur	-4349
anges	-4350
ashed	-4351
esses	-4352
glise	-4353
ician	-4354
icine	-4355
iliar	-4356
iquer	-4357
irsty	-4358
lling	-4359
ocked	-4360
olute	-4361
osing	-4362
riger	-4363
tenir	-4364
under	-4365
ustom	-4366
utile	-4367
venir	-4368
▁Avec	-4369
▁Bien	-4370
▁Bill	-4371
▁Both	-4372
▁Brit	-4373
▁Cont	-4374
▁Mais	-4375
▁Make	-4376
▁Mets	-4377
▁Sans	-4378
▁Voud	-4379
▁appa	-4380
▁arch	-4381
▁area	-4382
▁beat	-4383
▁cand	-4384
▁cars	-4385
▁chin	-4386
▁cool	-4387
▁coût	-4388
▁demi	-4389
▁doub	-4390
▁détr	-4391
▁feet	-4392
▁flat	-4393
▁grat	-4394
▁held	-4395
▁hide	-4396
▁joué	-4397
▁loss	-4398
▁magn	-4399
▁paid	-4400
▁péri	-4401
▁rang	-4402
▁ring	-4403
▁rude	-4404
▁site	-4405
▁souc	-4406
▁spéc	-4407
▁stri	-4408
▁symb	-4409
▁task	-4410
▁text	-4411
▁vécu	-4412
atives	-4413
avenir	-4414
cience	-4415
enfant	-4416
ennemi	-4417
espace	-4418
fortun	-4419
icious	-4420
iennes	-4421
iverse	-4422
ording	-4423
oublie	-4424
ousand	-4425
rences	-4426
érence	-4427
▁Savez	-4428
▁Since	-4429
▁Susan	-4430
▁absur	-4431
▁activ	-4432
▁adore	-4433
▁année	-4434
▁aupar	-4435
▁beach	-4436
▁becom	-4437
▁burst	-4438
▁calme	-4439
▁capit	-4440
▁cassé	-4441
▁corps	-4442
▁costs	-4443
▁coupe	-4444
▁eight	-4445
▁enemy	-4446
▁exerc	-4447
▁forme	-4448
▁given	-4449
▁ingén	-4450
▁jolie	-4451
▁laver	-4452
▁lever	-4453
▁loves	-4454
▁major	-4455
▁means	-4456
▁merve	-4457
▁novel	-4458
▁organ	-4459
▁perte	-4460
▁plage	-4461
▁pomme	-4462
▁poule	-4463
▁pouss	-4464
▁prise	-4465
▁prote	-4466
▁reach	-4467
▁refus	-4468
▁repas	-4469
▁respe	-4470
▁reste	-4471
▁roman	-4472
▁réuss	-4473
▁sache	-4474
▁salle	-4475
▁selon	-4476
▁seras	-4477
▁smile	-4478
▁souci	-4479
▁space	-4480
▁spent	-4481
▁teeth	-4482
▁tient	-4483
▁veget	-4484
▁venue	-4485
▁vingt	-4486
▁vraie	-4487
▁white	-4488
▁whose	-4489
▁women	-4490
▁écout	-4491
agement	-4492
artient	-4493
enfants	-4494
vénient	-4495
▁Friday	-4496
▁Parlez	-4497
▁Prends	-4498
▁Toutes	-4499
▁altern	-4500
▁années	-4501
▁appear	-4502
▁arrest	-4503
▁bonnes	-4504
▁bother	-4505
▁choose	-4506
▁consid	-4507
▁copies	-4508
▁copine	-4509
▁cuisin	-4510
▁devint	-4511
▁disent	-4512
▁départ	-4513
▁energy	-4514
▁entire	-4515
▁fermer	-4516
▁filled	-4517
▁garage	-4518
▁garden	-4519
▁gouver	-4520
▁hardly	-4521
▁hasard	-4522
▁helped	-4523
▁hundre	-4524
▁larmes	-4525
▁mourir	-4526
▁origin	-4527
▁papier	-4528
▁passed	-4529
▁patron	-4530
▁planet	-4531
▁plenty	-4532
▁prends	-4533
▁proche	-4534
▁proper	-4535
▁prépar	-4536
▁recogn	-4537
▁rejoin	-4538
▁remain	-4539
▁revenu	-4540
▁résult	-4541
▁scared	-4542
▁seront	-4543
▁shower	-4544
▁silent	-4545
▁sooner	-4546
▁talent	-4547
▁timide	-4548
▁touche	-4549
▁warned	-4550
▁winter	-4551
▁écureu	-4552
onnement	-4553
▁Excusez	-4554
▁Nothing	-4555
▁brought	-4556
▁conduis	-4557
▁convers	-4558
▁culture	-4559
▁demanda	-4560
▁depends	-4561
▁details	-4562
▁discuss	-4563
▁doivent	-4564
▁détails	-4565
▁hurried	-4566
▁injured	-4567
▁manager	-4568
▁mariage	-4569
▁morceau	-4570
▁natural	-4571
▁painted	-4572
▁parlait	-4573
▁parties	-4574
▁partout	-4575
▁plaisir	-4576
▁raining	-4577
▁rapport	-4578
▁souhait	-4579
▁subject	-4580
▁suggest	-4581
▁sérieux	-4582
▁thirsty	-4583
▁visited	-4584
▁windows	-4585
▁écouter	-4586
▁étrange	-4587
expliquer	-4588
ngleterre	-4589
▁absolute	-4590
▁certains	-4591
▁comprend	-4592
▁consider	-4593
▁contente	-4594
▁decision	-4595
▁determin	-4596
▁familiar	-4597
▁fenêtres	-4598
▁greatest	-4599
▁laughing	-4600
▁philosop	-4601
▁punctual	-4602
▁rappelle	-4603
▁received	-4604
▁semaines	-4605
▁universe	-4606
▁upstairs	-4607
▁vendredi	-4608
▁étudiant	-4609
▁amoureuse	-4610
▁beginning	-4611
▁boyfriend	-4612
▁compagnie	-4613
▁connaître	-4614
▁différent	-4615
▁existence	-4616
▁following	-4617
▁impatient	-4618
▁newspaper	-4619
▁president	-4620
▁retourner	-4621
▁seriously	-4622
▁succeeded	-4623
fortunately	-4624
information	-4625
▁Everything	-4626
▁appartient	-4627
▁auparavant	-4628
▁considered	-4629
▁difference	-4630
▁tranquille	-4631
▁destination	-4632
▁intéressant	-4633
▁conversation	-4634
▁gouvernement	-4635
▁inconvénient	-4636
▁scientifique	-4637
",	-4638
,"	-4639
ax	-4640
lc	-4641
ns	-4642
zy	-4643
alc	-4644
amb	-4645
arp	-4646
aré	-4647
avi	-4648
cha	-4649
chn	-4650
cks	-4651
cée	-4652
ded	-4653
del	-4654
dge	-4655
els	-4656
enu	-4657
env	-4658
ern	-4659
ery	-4660
exc	-4661
ged	-4662
ief	-4663
ifs	-4664
igé	-4665
iko	-4666
iné	-4667
iée	-4668
lam	-4669
oop	-4670
oto	-4671
oué	-4672
ril	-4673
roy	-4674
ste	-4675
tem	-4676
uls	-4677
umn	-4678
upe	-4679
uts	-4680
val	-4681
yer	-4682
ysi	-4683
▁Ak	-4684
▁Cl	-4685
▁Gu	-4686
▁Ky	-4687
▁Me	-4688
▁Va	-4689
▁gh	-4690
▁hé	-4691
▁ow	-4692
▁rh	-4693
acif	-4694
aked	-4695
alut	-4696
amen	-4697
ancé	-4698
anus	-4699
aped	-4700
arme	-4701
card	-4702
cles	-4703
dden	-4704
dict	-4705
ests	-4706
gust	-4707
haps	-4708
icie	-4709
ills	-4710
itée	-4711
lace	-4712
lame	-4713
omob	-4714
onom	-4715
opin	-4716
ored	-4717
ores	-4718
orge	-4719
ouer	-4720
ount	-4721
over	-4722
oyal	-4723
rice	-4724
rich	-4725
rier	-4726
rige	-4727
rime	-4728
sons	-4729
sych	-4730
tect	-4731
uits	-4732
uler	-4733
umes	-4734
uste	-4735
vies	-4736
èvre	-4737
épar	-4738
êche	-4739
ômes	-4740
ôtre	-4741
▁200	-4742
▁Bre	-4743
▁Dem	-4744
▁Dep	-4745
▁Ess	-4746
▁Man	-4747
▁Moi	-4748
▁Rep	-4749
▁Tan	-4750
▁Try	-4751
▁USA	-4752
▁Vos	-4753
▁War	-4754
▁Was	-4755
▁ant	-4756
▁anx	-4757
▁civ	-4758
▁dad	-4759
▁deg	-4760
▁dor	-4761
▁ear	-4762
▁fré	-4763
▁hyp	-4764
▁jud	-4765
▁lav	-4766
▁loi	-4767
▁mec	-4768
▁mel	-4769
▁nez	-4770
▁née	-4771
▁pai	-4772
▁pan	-4773
▁pig	-4774
▁sad	-4775
▁ski	-4776
▁sto	-4777
▁uns	-4778
▁wed	-4779
▁élu	-4780
acter	-4781
allen	-4782
anter	-4783
ardez	-4784
asses	-4785
autor	-4786
chons	-4787
dered	-4788
ensez	-4789
haust	-4790
icken	-4791
inite	-4792
inqui	-4793
jouis	-4794
leman	-4795
oires	-4796
ounds	-4797
outes	-4798
phone	-4799
pping	-4800
ratul	-4801
rique	-4802
round	-4803
rouve	-4804
ughed	-4805
venue	-4806
veral	-4807
xante	-4808
ément	-4809
étend	-4810
▁Call	-4811
▁Didn	-4812
▁Hier	-4813
▁Jack	-4814
▁Lang	-4815
▁Many	-4816
▁Pard	-4817
▁Paul	-4818
▁Pres	-4819
▁Time	-4820
▁Were	-4821
▁aver	-4822
▁avis	-4823
▁bear	-4824
▁blue	-4825
▁boat	-4826
▁boit	-4827
▁calm	-4828
▁card	-4829
▁cele	-4830
▁data	-4831
▁deep	-4832
▁diam	-4833
▁dish	-4834
▁dure	-4835
▁fail	-4836
▁fool	-4837
▁lake	-4838
▁larg	-4839
▁lazy	-4840
▁lots	-4841
▁lour	-4842
▁mamm	-4843
▁oper	-4844
▁page	-4845
▁pale	-4846
▁pend	-4847
▁phys	-4848
▁poll	-4849
▁pâle	-4850
▁quar	-4851
▁runs	-4852
▁rêve	-4853
▁rôle	-4854
▁sage	-4855
▁sain	-4856
▁sale	-4857
▁says	-4858
▁sept	-4859
▁shut	-4860
▁side	-4861
▁size	-4862
▁soif	-4863
▁soud	-4864
▁surf	-4865
▁surp	-4866
▁susp	-4867
▁symp	-4868
▁ther	-4869
▁tire	-4870
▁tort	-4871
▁toys	-4872
▁truc	-4873
▁vole	-4874
▁vues	-4875
▁wake	-4876
▁warm	-4877
▁welc	-4878
▁wise	-4879
▁wore	-4880
▁état	-4881
admire	-4882
alcool	-4883
allais	-4884
anceux	-4885
appell	-4886
examen	-4887
father	-4888
habite	-4889
humeur	-4890
iences	-4891
iracle	-4892
issent	-4893
lément	-4894
mother	-4895
selves	-4896
▁After	-4897
▁Avant	-4898
▁Kyoto	-4899
▁Leave	-4900
▁Nancy	-4901
▁Reste	-4902
▁Spain	-4903
▁Those	-4904
▁Whose	-4905
▁alive	-4906
▁apart	-4907
▁awake	-4908
▁banan	-4909
▁barbe	-4910
▁blame	-4911
▁blind	-4912
▁bread	-4913
▁breat	-4914
▁bring	-4915
▁brown	-4916
▁cache	-4917
▁cents	-4918
▁chair	-4919
▁color	-4920
▁compr	-4921
▁confe	-4922
▁connu	-4923
▁coûte	-4924
▁creat	-4925
▁cruel	-4926
▁drank	-4927
▁entré	-4928
▁faith	-4929
▁fault	-4930
▁faute	-4931
▁foods	-4932
▁forcé	-4933
▁funny	-4934
▁futon	-4935
▁gagné	-4936
▁ghost	-4937
▁gliss	-4938
▁group	-4939
▁keeps	-4940
▁kinds	-4941
▁knife	-4942
▁lente	-4943
▁liste	-4944
▁local	-4945
▁maman	-4946
▁marre	-4947
▁meant	-4948
▁mille	-4949
▁musée	-4950
▁nulle	-4951
▁ought	-4952
▁paint	-4953
▁physi	-4954
▁pizza	-4955
▁plans	-4956
▁proud	-4957
▁psych	-4958
▁pyram	-4959
▁quant	-4960
▁relig	-4961
▁remer	-4962
▁rends	-4963
▁repro	-4964
▁rhume	-4965
▁rules	-4966
▁scene	-4967
▁separ	-4968
▁sharp	-4969
▁signe	-4970
▁sings	-4971
▁stopp	-4972
▁talks	-4973
▁tasse	-4974
▁techn	-4975
▁threw	-4976
▁throw	-4977
▁trees	-4978
▁tâche	-4979
▁upset	-4980
▁virus	-4981
▁volun	-4982
▁waste	-4983
▁weeks	-4984
▁worst	-4985
▁école	-4986
▁écras	-4987
Austral	-4988
abilité	-4989
arriver	-4990
automne	-4991
itation	-4992
olument	-4993
énergie	-4994
étudier	-4995
▁Canada	-4996
▁Chaque	-4997
▁Depuis	-4998
▁Pensez	-4999
▁People	-5000
▁States	-5001
▁Thanks	-5002
▁accusé	-5003
▁admire	-5004
▁agreed	-5005
▁arbres	-5006
▁assist	-5007
▁auriez	-5008
▁author	-5009
▁belong	-5010
▁bottle	-5011
▁bright	-5012
▁butter	-5013
▁centre	-5014
▁chiens	-5015
▁church	-5016
▁cinéma	-5017
▁commer	-5018
▁common	-5019
▁consac	-5020
▁cousin	-5021
▁dessin	-5022
▁destin	-5023
▁disait	-5024
▁dispar	-5025
▁douche	-5026
▁driver	-5027
▁droite	-5028
▁droits	-5029
▁décida	-5030
▁emprun	-5031
▁endorm	-5032
▁ennuis	-5033
▁explos	-5034
▁failed	-5035
▁faster	-5036
▁favour	-5037
▁forced	-5038
▁fruits	-5039
▁frères	-5040
▁garder	-5041
▁gentil	-5042
▁habitu	-5043
▁handle	-5044
▁jouets	-5045
▁lawyer	-5046
▁leaves	-5047
▁mathém	-5048
▁memory	-5049
▁mesure	-5050
▁months	-5051
▁movies	-5052
▁museum	-5053
▁normal	-5054
▁nouvel	-5055
▁parles	-5056
▁permis	-5057
▁pierre	-5058
▁promis	-5059
▁protég	-5060
▁prêtes	-5061
▁pêcher	-5062
▁quitté	-5063
▁remind	-5064
▁représ	-5065
▁riches	-5066
▁règles	-5067
▁sentir	-5068
▁served	-5069
▁singer	-5070
▁sortes	-5071
▁sounds	-5072
▁statue	-5073
▁street	-5074
▁sudden	-5075
▁suivre	-5076
▁superm	-5077
▁taller	-5078
▁temper	-5079
▁trente	-5080
▁tunnel	-5081
▁unique	-5082
▁vendre	-5083
▁vivant	-5084
▁weight	-5085
▁étrang	-5086
emporter	-5087
entendre	-5088
espagnol	-5089
llemagne	-5090
▁Apporte	-5091
▁England	-5092
▁Germany	-5093
▁Nations	-5094
▁Someone	-5095
▁affaire	-5096
▁animals	-5097
▁archite	-5098
▁aurions	-5099
▁challen	-5100
▁complex	-5101
▁conclus	-5102
▁considé	-5103
▁contrat	-5104
▁coucher	-5105
▁devient	-5106
▁devoirs	-5107
▁décider	-5108
▁earthqu	-5109
▁erreurs	-5110
▁excuses	-5111
▁exhaust	-5112
▁express	-5113
▁fishing	-5114
▁fromage	-5115
▁grandes	-5116
▁growing	-5117
▁honnête	-5118
▁hundred	-5119
▁increas	-5120
▁laughed	-5121
▁letters	-5122
▁license	-5123
▁maladie	-5124
▁matters	-5125
▁minimum	-5126
▁miracle	-5127
▁moutons	-5128
▁nations	-5129
▁options	-5130
▁ouverte	-5131
▁petites	-5132
▁planète	-5133
▁princip	-5134
▁project	-5135
▁quitter	-5136
▁reasons	-5137
▁refaire	-5138
▁refused	-5139
▁réjouis	-5140
▁réparer	-5141
▁sembles	-5142
▁several	-5143
▁special	-5144
▁squirre	-5145
▁stopped	-5146
▁touched	-5147
▁treated	-5148
▁visiter	-5149
▁watched	-5150
▁wedding	-5151
▁worried	-5152
▁étoiles	-5153
apprendre	-5154
▁actuelle	-5155
▁admitted	-5156
▁arrogant	-5157
▁chanceux	-5158
▁chercher	-5159
▁commença	-5160
▁concentr	-5161
▁corriger	-5162
▁cuisiner	-5163
▁drinking	-5164
▁espagnol	-5165
▁exercise	-5166
▁feuilles	-5167
▁homework	-5168
▁medicine	-5169
▁nettoyer	-5170
▁occasion	-5171
▁opportun	-5172
▁parfaite	-5173
▁particul	-5174
▁pictures	-5175
▁portable	-5176
▁pratique	-5177
▁produire	-5178
▁promises	-5179
▁préparer	-5180
▁rarement	-5181
▁réveillé	-5182
▁souvenir	-5183
▁starting	-5184
▁viendrai	-5185
▁Americans	-5186
▁apologize	-5187
▁bouteille	-5188
▁childhood	-5189
▁contribut	-5190
▁countries	-5191
▁découvrir	-5192
▁gentleman	-5193
▁happening	-5194
▁intéressé	-5195
▁listening	-5196
▁politique	-5197
▁présenter	-5198
▁réfléchir	-5199
▁satisfait	-5200
▁satisfied	-5201
▁telephone	-5202
▁translate	-5203
▁wonderful	-5204
▁conscience	-5205
▁finalement	-5206
▁nombreuses	-5207
▁profession	-5208
▁reconnaiss	-5209
▁rencontrée	-5210
▁supplément	-5211
▁university	-5212
anniversaire	-5213
heureusement	-5214
▁comfortable	-5215
▁difficultés	-5216
▁embarrassed	-5217
▁grandfather	-5218
▁grandmother	-5219
▁responsable	-5220
▁responsible	-5221
▁construction	-5222
▁instructions	-5223
▁Unfortunately	-5224
".	-5225
2.	-5226
Do	-5227
MS	-5228
Oh	-5229
fa	-5230
fl	-5231
gu	-5232
ky	-5233
mm	-5234
mé	-5235
éb	-5236
abl	-5237
aqu	-5238
bun	-5239
des	-5240
gal	-5241
gin	-5242
gth	-5243
hip	-5244
inc	-5245
ird	-5246
lax	-5247
mat	-5248
mot	-5249
neu	-5250
old	-5251
omi	-5252
orn	-5253
oré	-5254
osé	-5255
oul	-5256
oût	-5257
reg	-5258
rin	-5259
rob	-5260
rét	-5261
ubl	-5262
udd	-5263
uff	-5264
yth	-5265
âce	-5266
âge	-5267
èce	-5268
édé	-5269
▁Ha	-5270
▁Ph	-5271
▁Ta	-5272
▁Vu	-5273
▁aj	-5274
▁cy	-5275
▁ed	-5276
▁gi	-5277
▁mi	-5278
▁mê	-5279
acun	-5280
alif	-5281
athy	-5282
atic	-5283
atou	-5284
ccer	-5285
dule	-5286
enci	-5287
enef	-5288
esse	-5289
ging	-5290
géri	-5291
hier	-5292
imul	-5293
itié	-5294
ivre	-5295
look	-5296
mons	-5297
mony	-5298
ners	-5299
oard	-5300
ocat	-5301
oile	-5302
olid	-5303
oned	-5304
orme	-5305
pock	-5306
ract	-5307
rape	-5308
reur	-5309
ript	-5310
ront	-5311
tles	-5312
uite	-5313
ular	-5314
urry	-5315
vine	-5316
wing	-5317
word	-5318
èbre	-5319
ètes	-5320
èves	-5321
éter	-5322
▁Acc	-5323
▁Ant	-5324
▁Dur	-5325
▁Fin	-5326
▁Hit	-5327
▁Ind	-5328
▁Jou	-5329
▁Mus	-5330
▁Per	-5331
▁Seu	-5332
▁Tes	-5333
▁Voy	-5334
▁arm	-5335
▁bug	-5336
▁dos	-5337
▁dot	-5338
▁dry	-5339
▁dén	-5340
▁ens	-5341
▁foi	-5342
▁jug	-5343
▁low	-5344
▁meu	-5345
▁mic	-5346
▁nor	-5347
▁pét	-5348
▁réd	-5349
▁sat	-5350
▁sys	-5351
▁tie	-5352
▁tit	-5353
▁vus	-5354
▁éve	-5355
ached	-5356
aimes	-5357
althy	-5358
ament	-5359
arriv	-5360
arrêt	-5361
artes	-5362
aurai	-5363
avate	-5364
aving	-5365
cepté	-5366
ching	-5367
conom	-5368
eared	-5369
eding	-5370
ennuy	-5371
enser	-5372
entra	-5373
erais	-5374
eurre	-5375
fully	-5376
hered	-5377
hiver	-5378
hôtel	-5379
icial	-5380
iddle	-5381
ielle	-5382
inced	-5383
irait	-5384
issez	-5385
ities	-5386
iveau	-5387
moire	-5388
monie	-5389
oleil	-5390
onely	-5391
oward	-5392
posez	-5393
rance	-5394
razil	-5395
ribly	-5396
stand	-5397
uelle	-5398
usion	-5399
vious	-5400
étage	-5401
▁Cent	-5402
▁Cons	-5403
▁Dois	-5404
▁Life	-5405
▁Only	-5406
▁Père	-5407
▁Quoi	-5408
▁Read	-5409
▁Sach	-5410
▁aies	-5411
▁amaz	-5412
▁aper	-5413
▁argu	-5414
▁arme	-5415
▁bank	-5416
▁bare	-5417
▁bark	-5418
▁beef	-5419
▁bird	-5420
▁bleu	-5421
▁bord	-5422
▁boss	-5423
▁bras	-5424
▁brun	-5425
▁cach	-5426
▁cass	-5427
▁cere	-5428
▁cine	-5429
▁circ	-5430
▁clou	-5431
▁club	-5432
▁crow	-5433
▁deny	-5434
▁desk	-5435
▁desp	-5436
▁dise	-5437
▁diss	-5438
▁drop	-5439
▁déçu	-5440
▁euro	-5441
▁fair	-5442
▁fant	-5443
▁file	-5444
▁fing	-5445
▁firm	-5446
▁fume	-5447
▁gars	-5448
▁geni	-5449
▁guer	-5450
▁guil	-5451
▁huge	-5452
▁huit	-5453
▁hâte	-5454
▁juge	-5455
▁lent	-5456
▁line	-5457
▁loup	-5458
▁mach	-5459
▁mail	-5460
▁merc	-5461
▁mien	-5462
▁mood	-5463
▁neuf	-5464
▁none	-5465
▁nons	-5466
▁owes	-5467
▁pack	-5468
▁papa	-5469
▁pige	-5470
▁pneu	-5471
▁pull	-5472
▁puzz	-5473
▁race	-5474
▁romp	-5475
▁rose	-5476
▁salt	-5477
▁sors	-5478
▁tong	-5479
▁upon	-5480
▁vive	-5481
▁weak	-5482
▁wood	-5483
▁œufs	-5484
aimait	-5485
entrée	-5486
icated	-5487
icieux	-5488
illeux	-5489
itions	-5490
ommage	-5491
orable	-5492
orolog	-5493
velopp	-5494
église	-5495
éranto	-5496
▁Alger	-5497
▁Après	-5498
▁Bring	-5499
▁Esper	-5500
▁Italy	-5501
▁Langu	-5502
▁Never	-5503
▁Quels	-5504
▁Russi	-5505
▁Women	-5506
▁above	-5507
▁admis	-5508
▁ahead	-5509
▁aille	-5510
▁ambul	-5511
▁annul	-5512
▁blank	-5513
▁bored	-5514
▁brain	-5515
▁built	-5516
▁candy	-5517
▁clair	-5518
▁coupé	-5519
▁coûts	-5520
▁crise	-5521
▁dirai	-5522
▁donna	-5523
▁equal	-5524
▁estim	-5525
▁exemp	-5526
▁famil	-5527
▁fermé	-5528
▁finan	-5529
▁fired	-5530
▁folle	-5531
▁force	-5532
▁forte	-5533
▁foule	-5534
▁frais	-5535
▁futur	-5536
▁félic	-5537
▁games	-5538
▁goods	-5539
▁guide	-5540
▁gérer	-5541
▁helps	-5542
▁holid	-5543
▁honey	-5544
▁héros	-5545
▁influ	-5546
▁issue	-5547
▁jambe	-5548
▁judge	-5549
▁labor	-5550
▁lines	-5551
▁lâche	-5552
▁manqu	-5553
▁match	-5554
▁mater	-5555
▁médic	-5556
▁métro	-5557
▁naiss	-5558
▁occur	-5559
▁offer	-5560
▁parie	-5561
▁parla	-5562
▁piggy	-5563
▁plait	-5564
▁pleur	-5565
▁poche	-5566
▁pours	-5567
▁prior	-5568
▁prêts	-5569
▁rains	-5570
▁révél	-5571
▁senti	-5572
▁seuls	-5573
▁seven	-5574
▁share	-5575
▁sheep	-5576
▁spect	-5577
▁stylo	-5578
▁sépar	-5579
▁tells	-5580
▁thick	-5581
▁total	-5582
▁truck	-5583
▁utile	-5584
▁vendu	-5585
▁venez	-5586
▁venge	-5587
▁voilà	-5588
▁voulu	-5589
▁walks	-5590
▁wears	-5591
▁weigh	-5592
▁weird	-5593
▁élect	-5594
appeler	-5595
ception	-5596
encieux	-5597
entends	-5598
imagine	-5599
intérêt	-5600
jection	-5601
lection	-5602
quences	-5603
rennent	-5604
stances	-5605
épouser	-5606
étaient	-5607
▁Améric	-5608
▁Brazil	-5609
▁Devine	-5610
▁Prices	-5611
▁Soleil	-5612
▁accent	-5613
▁advert	-5614
▁aiment	-5615
▁alliez	-5616
▁assure	-5617
▁aurais	-5618
▁autumn	-5619
▁bandes	-5620
▁battre	-5621
▁belief	-5622
▁beurre	-5623
▁button	-5624
▁camera	-5625
▁caract	-5626
▁cartes	-5627
▁casser	-5628
▁caused	-5629
▁celebr	-5630
▁chaude	-5631
▁cheval	-5632
▁circon	-5633
▁clever	-5634
▁client	-5635
▁cochon	-5636
▁compos	-5637
▁courir	-5638
▁custom	-5639
▁danced	-5640
▁decide	-5641
▁dirait	-5642
▁dirige	-5643
▁drinks	-5644
▁during	-5645
▁econom	-5646
▁effray	-5647
▁employ	-5648
▁escape	-5649
▁examen	-5650
▁feriez	-5651
▁fluent	-5652
▁froide	-5653
▁gotten	-5654
▁grands	-5655
▁hammer	-5656
▁harder	-5657
▁hiding	-5658
▁inconn	-5659
▁kissed	-5660
▁laisse	-5661
▁lequel	-5662
▁lesque	-5663
▁likely	-5664
▁lonely	-5665
▁mariés	-5666
▁nation	-5667
▁neighb	-5668
▁niveau	-5669
▁oiseau	-5670
▁orange	-5671
▁passée	-5672
▁paying	-5673
▁petits	-5674
▁peuple	-5675
▁pleure	-5676
▁polite	-5677
▁portée	-5678
▁poster	-5679
▁preuve	-5680
▁profit	-5681
▁propri	-5682
▁pushed	-5683
▁rarely	-5684
▁refuse	-5685
▁remède	-5686
▁restée	-5687
▁rumeur	-5688
▁saisir	-5689
▁savons	-5690
▁sienne	-5691
▁sleepy	-5692
▁smells	-5693
▁soccer	-5694
▁social	-5695
▁soirée	-5696
▁sortie	-5697
▁soyons	-5698
▁suffit	-5699
▁system	-5700
▁toilet	-5701
▁tombée	-5702
▁toward	-5703
▁useful	-5704
▁vaches	-5705
▁visage	-5706
▁waited	-5707
▁within	-5708
▁élèves	-5709
▁énorme	-5710
▁éviter	-5711
apporter	-5712
déjeuner	-5713
gressive	-5714
indiquer	-5715
intéress	-5716
occasion	-5717
ointment	-5718
▁British	-5719
▁Espagne	-5720
▁Montrez	-5721
▁Quelque	-5722
▁Regarde	-5723
▁Without	-5724
▁appeler	-5725
▁arrivée	-5726
▁attendu	-5727
▁automob	-5728
▁average	-5729
▁bedroom	-5730
▁calling	-5731
▁changes	-5732
▁chicken	-5733
▁collect	-5734
▁compter	-5735
▁concern	-5736
▁conduct	-5737
▁conduit	-5738
▁contact	-5739
▁control	-5740
▁couleur	-5741
▁couteau	-5742
▁cravate	-5743
▁croient	-5744
▁célèbre	-5745
▁descend	-5746
▁deserve	-5747
▁dessert	-5748
▁disgust	-5749
▁douleur	-5750
▁dérange	-5751
▁détruit	-5752
▁elected	-5753
▁excited	-5754
▁falling	-5755
▁foreign	-5756
▁forever	-5757
▁forgive	-5758
▁happens	-5759
▁improve	-5760
▁justice	-5761
▁laissez	-5762
▁lettres	-5763
▁longues	-5764
▁marteau	-5765
▁matière	-5766
▁mention	-5767
▁musical	-5768
▁nerveux	-5769
▁occupés	-5770
▁oranges	-5771
▁parfait	-5772
▁pigeons	-5773
▁players	-5774
▁protect	-5775
▁prudent	-5776
▁prévenu	-5777
▁request	-5778
▁results	-5779
▁retrait	-5780
▁répondu	-5781
▁salaire	-5782
▁science	-5783
▁semblez	-5784
▁singing	-5785
▁smaller	-5786
▁soldats	-5787
▁soutien	-5788
▁spécial	-5789
▁suicidé	-5790
▁sympath	-5791
▁tableau	-5792
▁theater	-5793
▁toucher	-5794
▁tremble	-5795
▁viendra	-5796
▁voisins	-5797
▁volonté	-5798
▁volunte	-5799
▁voyager	-5800
▁welcome	-5801
▁willing	-5802
▁étudier	-5803
Australie	-5804
éralement	-5805
▁Disposez	-5806
▁Japonais	-5807
▁Voudriez	-5808
▁accepter	-5809
▁aliments	-5810
▁allemand	-5811
▁anywhere	-5812
▁appareil	-5813
▁arrested	-5814
▁baseball	-5815
▁believed	-5816
▁brothers	-5817
▁campagne	-5818
▁changing	-5819
▁chocolat	-5820
▁constitu	-5821
▁contract	-5822
▁evidence	-5823
▁followed	-5824
▁friendly	-5825
▁horrible	-5826
▁interdit	-5827
▁kindness	-5828
▁listened	-5829
▁mensonge	-5830
▁mignonne	-5831
▁nonsense	-5832
▁objectif	-5833
▁painting	-5834
▁physical	-5835
▁physique	-5836
▁position	-5837
▁pourriez	-5838
▁promesse	-5839
▁proposal	-5840
▁remettre	-5841
▁returned	-5842
▁réaliser	-5843
▁réfléchi	-5844
▁sensible	-5845
▁signifie	-5846
▁soixante	-5847
▁soldiers	-5848
▁souhaite	-5849
▁standing	-5850
▁stopping	-5851
▁terribly	-5852
▁thousand	-5853
▁voudrait	-5854
université	-5855
▁Esperanto	-5856
▁Quiconque	-5857
▁Sometimes	-5858
▁Yesterday	-5859
▁chocolate	-5860
▁connaisse	-5861
▁conseillé	-5862
▁convinced	-5863
▁delicious	-5864
▁encourage	-5865
▁exhausted	-5866
▁favourite	-5867
▁gentilles	-5868
▁impressed	-5869
▁intention	-5870
▁invention	-5871
▁policeman	-5872
▁promesses	-5873
▁recognize	-5874
▁recommand	-5875
▁rejoindre	-5876
▁remercier	-5877
▁représent	-5878
▁respecter	-5879
▁résultats	-5880
▁technolog	-5881
▁écureuils	-5882
instituteur	-5883
▁absolument	-5884
▁absolutely	-5885
▁bicyclette	-5886
▁clairement	-5887
▁difficulty	-5888
▁différence	-5889
▁earthquake	-5890
▁fonctionne	-5891
▁generation	-5892
▁génération	-5893
▁importante	-5894
▁populaires	-5895
▁rencontrés	-5896
▁ressources	-5897
▁réellement	-5898
▁scientific	-5899
▁silencieux	-5900
▁totalement	-5901
▁appointment	-5902
▁connaissait	-5903
▁imagination	-5904
▁importantes	-5905
▁instituteur	-5906
▁opportunity	-5907
▁quotidienne	-5908
▁anniversaire	-5909
▁mathématiques	-5910
▁Malheureusement	-5911
2,	-5912
Al	-5913
Am	-5914
RI	-5915
Tu	-5916
Un	-5917
fr	-5918
rh	-5919
sA	-5920
to	-5921
vu	-5922
May	-5923
aki	-5924
ako	-5925
amm	-5926
apé	-5927
arb	-5928
arf	-5929
até	-5930
auc	-5931
ava	-5932
ban	-5933
bed	-5934
bon	-5935
bri	-5936
coh	-5937
cou	-5938
dis	-5939
eds	-5940
ems	-5941
eny	-5942
eté	-5943
eus	-5944
gré	-5945
hie	-5946
ibi	-5947
ift	-5948
iny	-5949
ioc	-5950
len	-5951
let	-5952
mar	-5953
mez	-5954
mis	-5955
mpl	-5956
nam	-5957
nic	-5958
obe	-5959
och	-5960
oig	-5961
olf	-5962
oll	-5963
omè	-5964
opt	-5965
oys	-5966
pus	-5967
rab	-5968
rag	-5969
rie	-5970
rup	-5971
ser	-5972
tén	-5973
uch	-5974
uiv	-5975
uko	-5976
und	-5977
unt	-5978
uta	-5979
xim	-5980
ére	-5981
éte	-5982
îne	-5983
ôme	-5984
▁Ad	-5985
▁Ai	-5986
▁Av	-5987
▁Fl	-5988
▁Li	-5989
▁Mo	-5990
▁Of	-5991
▁Os	-5992
▁Ré	-5993
▁Sc	-5994
▁Su	-5995
▁fû	-5996
▁ug	-5997
▁ur	-5998
▁»,	-5999
acer	-6000
aded	-6001
agon	-6002
alax	-6003
aled	-6004
alog	-6005
anch	-6006
anim	-6007
appy	-6008
ares	-6009
auté	-6010
ayed	-6011
ayon	-6012
aéro	-6013
cean	-6014
chez	-6015
chie	-6016
cope	-6017
elie	-6018
elon	-6019
ende	-6020
erie	-6021
ffre	-6022
gnes	-6023
gram	-6024
honn	-6025
huit	-6026
iale	-6027
ibat	-6028
ieur	-6029
ilia	-6030
inci	-6031
inue	-6032
inze	-6033
isis	-6034
lier	-6035
liqu	-6036
lymp	-6037
obby	-6038
okoh	-6039
omic	-6040
ompe	-6041
ompl	-6042
orce	-6043
ortu	-6044
orté	-6045
oted	-6046
oved	-6047
peci	-6048
phab	-6049
raft	-6050
rect	-6051
role	-6052
rose	-6053
rouv	-6054
sApp	-6055
stan	-6056
uels	-6057
uiss	-6058
vite	-6059
ware	-6060
âché	-6061
écri	-6062
énom	-6063
éral	-6064
érif	-6065
étit	-6066
îmes	-6067
▁Ank	-6068
▁Bec	-6069
▁Bir	-6070
▁Cap	-6071
▁Che	-6072
▁Cle	-6073
▁Dés	-6074
▁Env	-6075
▁Exp	-6076
▁Fer	-6077
▁Few	-6078
▁Hen	-6079
▁Hum	-6080
▁Ito	-6081
▁Jul	-6082
▁Ken	-6083
▁Mag	-6084
▁Mil	-6085
▁Mos	-6086
▁Run	-6087
▁SMS	-6088
▁Ste	-6089
▁Sur	-6090
▁Yuk	-6091
▁bra	-6092
▁bén	-6093
▁cig	-6094
▁dai	-6095
▁dom	-6096
▁due	-6097
▁dut	-6098
▁eut	-6099
▁fab	-6100
▁fum	-6101
▁gat	-6102
▁god	-6103
▁hig	-6104
▁hop	-6105
▁jal	-6106
▁kil	-6107
▁lay	-6108
▁lev	-6109
▁lif	-6110
▁lou	-6111
▁mép	-6112
▁mér	-6113
▁neg	-6114
▁odd	-6115
▁pal	-6116
▁pil	-6117
▁riz	-6118
▁rug	-6119
▁tap	-6120
▁tel	-6121
▁tém	-6122
▁var	-6123
▁wit	-6124
▁yes	-6125
▁égo	-6126
▁œil	-6127
aband	-6128
agawa	-6129
ageux	-6130
aired	-6131
alous	-6132
ample	-6133
améli	-6134
andra	-6135
ankly	-6136
apter	-6137
arbre	-6138
arily	-6139
arles	-6140
atoes	-6141
avion	-6142
cesse	-6143
cious	-6144
cohol	-6145
duced	-6146
effet	-6147
ennad	-6148
entez	-6149
erver	-6150
esome	-6151
gnant	-6152
hemat	-6153
icles	-6154
icted	-6155
idden	-6156
idèle	-6157
iffel	-6158
illée	-6159
inent	-6160
irais	-6161
istic	-6162
levés	-6163
nelle	-6164
nique	-6165
ograp	-6166
oigne	-6167
ordin	-6168
orent	-6169
organ	-6170
ource	-6171
overy	-6172
résil	-6173
stème	-6174
table	-6175
uites	-6176
using	-6177
vable	-6178
ythag	-6179
érons	-6180
étude	-6181
▁Aide	-6182
▁Anne	-6183
▁Beau	-6184
▁Ceux	-6185
▁Comp	-6186
▁Cong	-6187
▁Cows	-6188
▁Good	-6189
▁Inde	-6190
▁Isra	-6191
▁Java	-6192
▁King	-6193
▁Last	-6194
▁Mars	-6195
▁Mike	-6196
▁None	-6197
▁Plus	-6198
▁Prom	-6199
▁Rest	-6200
▁Sais	-6201
▁Stay	-6202
▁Tony	-6203
▁Turn	-6204
▁Vois	-6205
▁abst	-6206
▁adap	-6207
▁affl	-6208
▁aisé	-6209
▁appe	-6210
▁appl	-6211
▁arms	-6212
▁asse	-6213
▁bale	-6214
▁bass	-6215
▁bath	-6216
▁batt	-6217
▁bisc	-6218
▁blow	-6219
▁bour	-6220
▁bœuf	-6221
▁cast	-6222
▁chou	-6223
▁clos	-6224
▁comb	-6225
▁cong	-6226
▁crai	-6227
▁decl	-6228
▁defe	-6229
▁diet	-6230
▁dira	-6231
▁docu	-6232
▁drow	-6233
▁déch	-6234
▁eats	-6235
▁educ	-6236
▁emer	-6237
▁evil	-6238
▁exch	-6239
▁faux	-6240
▁fous	-6241
▁gasp	-6242
▁gout	-6243
▁grew	-6244
▁guim	-6245
▁hadn	-6246
▁hall	-6247
▁heat	-6248
▁hell	-6249
▁heur	-6250
▁hill	-6251
▁hole	-6252
▁incl	-6253
▁inde	-6254
▁joie	-6255
▁joli	-6256
▁jump	-6257
▁laid	-6258
▁lied	-6259
▁lion	-6260
▁maît	-6261
▁mecs	-6262
▁mets	-6263
▁mett	-6264
▁mise	-6265
▁moon	-6266
▁mult	-6267
▁mété	-6268
▁nose	-6269
▁noyé	-6270
▁ours	-6271
▁pars	-6272
▁pean	-6273
▁peau	-6274
▁penc	-6275
▁phen	-6276
▁poem	-6277
▁poet	-6278
▁poli	-6279
▁puni	-6280
▁pure	-6281
▁rage	-6282
▁rank	-6283
▁rele	-6284
▁repe	-6285
▁rice	-6286
▁rise	-6287
▁rule	-6288
▁régl	-6289
▁save	-6290
▁sche	-6291
▁seas	-6292
▁sert	-6293
▁sofa	-6294
▁spat	-6295
▁spot	-6296
▁step	-6297
▁tien	-6298
▁toit	-6299
▁trah	-6300
▁ugly	-6301
▁util	-6302
▁vain	-6303
▁voie	-6304
▁voix	-6305
▁volc	-6306
▁volé	-6307
▁vote	-6308
▁whis	-6309
▁wild	-6310
antage	-6311
atolog	-6312
auteur	-6313
endent	-6314
ending	-6315
ension	-6316
ercice	-6317
humour	-6318
illard	-6319
ineers	-6320
isions	-6321
issage	-6322
itesse	-6323
occupe	-6324
omenon	-6325
omique	-6326
onomie	-6327
orient	-6328
ouvons	-6329
phabet	-6330
péenne	-6331
rasser	-6332
rength	-6333
usions	-6334
verrai	-6335
visage	-6336
époque	-6337
érable	-6338
étique	-6339
étudie	-6340
▁Alors	-6341
▁Break	-6342
▁China	-6343
▁Chine	-6344
▁Grand	-6345
▁Green	-6346
▁Guess	-6347
▁Helen	-6348
▁Hurry	-6349
▁India	-6350
▁Jones	-6351
▁Maria	-6352
▁Nouve	-6353
▁Osaka	-6354
▁Passe	-6355
▁Peter	-6356
▁Salut	-6357
▁Selon	-6358
▁Voilà	-6359
▁While	-6360
▁White	-6361
▁Yokoh	-6362
▁YouTu	-6363
▁aboie	-6364
▁accro	-6365
▁acide	-6366
▁acted	-6367
▁alent	-6368
▁alibi	-6369
▁among	-6370
▁artif	-6371
▁assis	-6372
▁avail	-6373
▁badly	-6374
▁benef	-6375
▁blond	-6376
▁bound	-6377
▁bruit	-6378
▁brûlé	-6379
▁cards	-6380
▁causé	-6381
▁censé	-6382
▁cerve	-6383
▁citiz	-6384
▁citoy	-6385
▁civil	-6386
▁clock	-6387
▁comic	-6388
▁concl	-6389
▁congé	-6390
▁cover	-6391
▁coûté	-6392
▁crain	-6393
▁crowd	-6394
▁crush	-6395
▁devin	-6396
▁diagn	-6397
▁diale	-6398
▁doors	-6399
▁doute	-6400
▁défin	-6401
▁démén	-6402
▁désir	-6403
▁empty	-6404
▁enfin	-6405
▁ennuy	-6406
▁entra	-6407
▁event	-6408
▁faits	-6409
▁ferme	-6410
▁films	-6411
▁finir	-6412
▁folie	-6413
▁forts	-6414
▁forêt	-6415
▁franc	-6416
▁gonna	-6417
▁green	-6418
▁génie	-6419
▁hiver	-6420
▁hobby	-6421
▁horse	-6422
▁humor	-6423
▁image	-6424
▁inqui	-6425
▁jeans	-6426
▁knock	-6427
▁liber	-6428
▁longs	-6429
▁lycée	-6430
▁menti	-6431
▁mondi	-6432
▁mouth	-6433
▁mouve	-6434
▁moved	-6435
▁mérit	-6436
▁nôtre	-6437
▁offic	-6438
▁pacif	-6439
▁pants	-6440
▁parmi	-6441
▁peace	-6442
▁pharm	-6443
▁pique	-6444
▁plane	-6445
▁poème	-6446
▁privé	-6447
▁prévu	-6448
▁pénét	-6449
▁quart	-6450
▁queue	-6451
▁recev	-6452
▁relax	-6453
▁remar	-6454
▁requi	-6455
▁round	-6456
▁rumor	-6457
▁russe	-6458
▁récol	-6459
▁sages	-6460
▁salad	-6461
▁salon	-6462
▁saved	-6463
▁schol	-6464
▁shoot	-6465
▁sixty	-6466
▁skirt	-6467
▁solid	-6468
▁songs	-6469
▁souri	-6470
▁spell	-6471
▁state	-6472
▁stood	-6473
▁sunny	-6474
▁sweet	-6475
▁séché	-6476
▁taxes	-6477
▁tente	-6478
▁tenté	-6479
▁terms	-6480
▁therm	-6481
▁tombe	-6482
▁vague	-6483
▁valid	-6484
▁verse	-6485
▁voice	-6486
▁whale	-6487
▁épous	-6488
▁épuis	-6489
affaire	-6490
apprent	-6491
asseoir	-6492
ciation	-6493
identif	-6494
incible	-6495
onsieur	-6496
osition	-6497
rifices	-6498
roscope	-6499
èrement	-6500
énomène	-6501
érerais	-6502
▁Allons	-6503
▁Brésil	-6504
▁Chopin	-6505
▁Demain	-6506
▁Eiffel	-6507
▁Father	-6508
▁Intern	-6509
▁Invite	-6510
▁Lequel	-6511
▁London	-6512
▁Mayuko	-6513
▁Mennad	-6514
▁Parler	-6515
▁Pythag	-6516
▁Tanaka	-6517
▁active	-6518
▁afford	-6519
▁agress	-6520
▁amical	-6521
▁angles	-6522
▁attaqu	-6523
▁attent	-6524
▁avions	-6525
▁avocat	-6526
▁banque	-6527
▁beauté	-6528
▁behave	-6529
▁betray	-6530
▁billet	-6531
▁biolog	-6532
▁blonde	-6533
▁bordel	-6534
▁boring	-6535
▁bouton	-6536
▁breast	-6537
▁breath	-6538
▁burned	-6539
▁cacher	-6540
▁calcul	-6541
▁camion	-6542
▁canapé	-6543
▁celles	-6544
▁cheese	-6545
▁cinema	-6546
▁circul	-6547
▁constr	-6548
▁copain	-6549
▁couper	-6550
▁coward	-6551
▁create	-6552
▁crimin	-6553
▁crisis	-6554
▁dating	-6555
▁debout	-6556
▁deeply	-6557
▁denied	-6558
▁design	-6559
▁devait	-6560
▁diable	-6561
▁dishes	-6562
▁doubts	-6563
▁durant	-6564
▁désire	-6565
▁effort	-6566
▁entier	-6567
▁entrer	-6568
▁entrée	-6569
▁especi	-6570
▁espoir	-6571
▁esprit	-6572
▁essent	-6573
▁excell	-6574
▁faible	-6575
▁fallen	-6576
▁fatigu	-6577
▁fautes	-6578
▁finger	-6579
▁flower	-6580
▁genoux	-6581
▁ghosts	-6582
▁guests	-6583
▁guilty	-6584
▁guitar	-6585
▁higher	-6586
▁highly	-6587
▁horrif	-6588
▁humili	-6589
▁impact	-6590
▁indust	-6591
▁insist	-6592
▁insult	-6593
▁jouent	-6594
▁knives	-6595
▁lights	-6596
▁lignes	-6597
▁losing	-6598
▁magnif	-6599
▁marron	-6600
▁matins	-6601
▁mentir	-6602
▁middle	-6603
▁modern	-6604
▁morgue	-6605
▁mérite	-6606
▁objets	-6607
▁ordres	-6608
▁packed	-6609
▁parked	-6610
▁parole	-6611
▁perdue	-6612
▁permit	-6613
▁picnic	-6614
▁pleine	-6615
▁points	-6616
▁prises	-6617
▁promen	-6618
▁raised	-6619
▁rempli	-6620
▁rentré	-6621
▁repair	-6622
▁rideau	-6623
▁rights	-6624
▁risque	-6625
▁ruined	-6626
▁répand	-6627
▁résolu	-6628
▁salade	-6629
▁sauver	-6630
▁showed	-6631
▁silenc	-6632
▁slowly	-6633
▁sombre	-6634
▁sports	-6635
▁spread	-6636
▁symbol	-6637
▁tenait	-6638
▁threat	-6639
▁tongue	-6640
▁touché	-6641
▁transp	-6642
▁trembl	-6643
▁triste	-6644
▁twenty	-6645
▁téléph	-6646
▁témoin	-6647
▁unless	-6648
▁veniez	-6649
▁virgin	-6650
▁voleur	-6651
▁échapp	-6652
▁éclata	-6653
▁étoile	-6654
accepter	-6655
ationale	-6656
aéroport	-6657
empêcher	-6658
hematics	-6659
ibataire	-6660
inquiète	-6661
piration	-6662
économie	-6663
▁Appelle	-6664
▁Charles	-6665
▁Connais	-6666
▁Londres	-6667
▁Promise	-6668
▁Quelles	-6669
▁Russian	-6670
▁accepté	-6671
▁airport	-6672
▁alcohol	-6673
▁amusant	-6674
▁appelée	-6675
▁atteint	-6676
▁attract	-6677
▁avaient	-6678
▁awesome	-6679
▁baleine	-6680
▁beating	-6681
▁billets	-6682
▁blesser	-6683
▁blessée	-6684
▁bonheur	-6685
▁bottles	-6686
▁capital	-6687
▁captain	-6688
▁chaleur	-6689
▁chinois	-6690
▁clearly	-6691
▁complet	-6692
▁contrar	-6693
▁created	-6694
▁crossed	-6695
▁curtain	-6696
▁devenus	-6697
▁discove	-6698
▁disting	-6699
▁donnent	-6700
▁données	-6701
▁dressed	-6702
▁economy	-6703
▁empêché	-6704
▁endormi	-6705
▁enfance	-6706
▁entered	-6707
▁failure	-6708
▁faisais	-6709
▁fallait	-6710
▁fucking	-6711
▁guitare	-6712
▁général	-6713
▁habitué	-6714
▁hanging	-6715
▁healthy	-6716
▁holiday	-6717
▁humaine	-6718
▁illness	-6719
▁imagine	-6720
▁intérêt	-6721
▁invités	-6722
▁jealous	-6723
▁légumes	-6724
▁machine	-6725
▁meubles	-6726
▁mignons	-6727
▁million	-6728
▁moyenne	-6729
▁mémoire	-6730
▁naturel	-6731
▁occuper	-6732
▁oiseaux	-6733
▁partici	-6734
▁passage	-6735
▁pensent	-6736
▁possède	-6737
▁postale	-6738
▁prendra	-6739
▁prevent	-6740
▁program	-6741
▁promets	-6742
▁reached	-6743
▁removed	-6744
▁respond	-6745
▁ridicul	-6746
▁risques	-6747
▁réalité	-6748
▁réponds	-6749
▁seconde	-6750
▁selfish	-6751
▁slipped	-6752
▁soucier	-6753
▁sourire	-6754
▁staying	-6755
▁stories	-6756
▁suggère	-6757
▁suicide	-6758
▁suivant	-6759
▁surface	-6760
▁système	-6761
▁tourner	-6762
▁traiter	-6763
▁utilisé	-6764
▁vouliez	-6765
▁washing	-6766
▁winning	-6767
▁witness	-6768
▁younger	-6769
▁éveillé	-6770
Allemagne	-6771
anchement	-6772
espéranto	-6773
uellement	-6774
▁American	-6775
▁Amérique	-6776
▁Beaucoup	-6777
▁Christop	-6778
▁European	-6779
▁Language	-6780
▁Pardonne	-6781
▁Regardez	-6782
▁Tomorrow	-6783
▁WhatsApp	-6784
▁Yokohama	-6785
▁aimerait	-6786
▁ambition	-6787
▁arrivent	-6788
▁attacked	-6789
▁augmenté	-6790
▁barbecue	-6791
▁becoming	-6792
▁believes	-6793
▁carrière	-6794
▁ceremony	-6795
▁chansons	-6796
▁chanteur	-6797
▁commande	-6798
▁contrôle	-6799
▁convainc	-6800
▁correcte	-6801
▁coupable	-6802
▁couteaux	-6803
▁critique	-6804
▁cultures	-6805
▁deuxième	-6806
▁discount	-6807
▁disposes	-6808
▁dépêcher	-6809
▁fantômes	-6810
▁fréquent	-6811
▁gathered	-6812
▁headache	-6813
▁imaginer	-6814
▁impliqué	-6815
▁internet	-6816
▁invitées	-6817
▁misunder	-6818
▁musician	-6819
▁musicien	-6820
▁neighbor	-6821
▁passport	-6822
▁password	-6823
▁peinture	-6824
▁personal	-6825
▁perspect	-6826
▁planning	-6827
▁pleasure	-6828
▁ponctuel	-6829
▁postcard	-6830
▁potatoes	-6831
▁poursuiv	-6832
▁prendrai	-6833
▁pressure	-6834
▁princess	-6835
▁produits	-6836
▁profonde	-6837
▁properly	-6838
▁protéger	-6839
▁prudente	-6840
▁préoccup	-6841
▁publique	-6842
▁punished	-6843
▁raconter	-6844
▁religion	-6845
▁repaired	-6846
▁schedule	-6847
▁sciences	-6848
▁semblait	-6849
▁semblant	-6850
▁services	-6851
▁strength	-6852
▁sûrement	-6853
▁teaching	-6854
▁tendance	-6855
▁traduire	-6856
▁troubles	-6857
▁trouvait	-6858
▁trouvent	-6859
▁veuilles	-6860
ulièrement	-6861
▁Attention	-6862
▁President	-6863
▁Promettez	-6864
▁according	-6865
▁advantage	-6866
▁ambulance	-6867
▁améliorer	-6868
▁apprécier	-6869
▁arrogance	-6870
▁atteindre	-6871
▁available	-6872
▁brillante	-6873
▁capitaine	-6874
▁caractère	-6875
▁chanceuse	-6876
▁chanteuse	-6877
▁committed	-6878
▁concerned	-6879
▁congratul	-6880
▁daughters	-6881
▁dessinées	-6882
▁devraient	-6883
▁directeur	-6884
▁emprunter	-6885
▁evolution	-6886
▁favorable	-6887
▁forgotten	-6888
▁heureuses	-6889
▁ignorance	-6890
▁insurance	-6891
▁introduce	-6892
▁lentement	-6893
▁magazines	-6894
▁mauvaises	-6895
▁merveille	-6896
▁mouvement	-6897
▁naissance	-6898
▁neighbors	-6899
▁objective	-6900
▁passeport	-6901
▁permettre	-6902
▁phénomène	-6903
▁plaisante	-6904
▁political	-6905
▁pollution	-6906
▁populaire	-6907
▁princesse	-6908
▁promettre	-6909
▁prononcer	-6910
▁puissance	-6911
▁relations	-6912
▁sensitive	-6913
▁sentiment	-6914
▁squirrels	-6915
▁supporter	-6916
▁tradition	-6917
▁transport	-6918
▁traverser	-6919
▁troisième	-6920
▁véritable	-6921
▁wondering	-6922
▁étudiante	-6923
▁Angleterre	-6924
▁acceptable	-6925
▁aggressive	-6926
▁appearance	-6927
▁concentrer	-6928
▁confection	-6929
▁couramment	-6930
▁couverture	-6931
▁determined	-6932
▁différents	-6933
▁especially	-6934
▁everywhere	-6935
▁expérience	-6936
▁impatience	-6937
▁ingénieurs	-6938
▁introduced	-6939
▁invincible	-6940
▁lesquelles	-6941
▁microscope	-6942
▁météorolog	-6943
▁phenomenon	-6944
▁sacrifices	-6945
▁traduction	-6946
▁vegetables	-6947
▁alternative	-6948
▁circulation	-6949
▁conclusions	-6950
▁connaissais	-6951
▁constituent	-6952
▁contributor	-6953
▁célibataire	-6954
▁différences	-6955
▁environment	-6956
▁gentillesse	-6957
▁mathematics	-6958
▁philosophie	-6959
▁possibility	-6960
▁possibilité	-6961
▁préférerais	-6962
▁temperature	-6963
▁traductions	-6964
apprentissage	-6965
▁certainement	-6966
▁comportement	-6967
▁connaissance	-6968
▁contributeur	-6969
▁généralement	-6970
▁intelligente	-6971
▁parfaitement	-6972
▁sérieusement	-6973
▁terriblement	-6974
▁translations	-6975
▁environnement	-6976
▁scientifiques	-6977
▁reconnaissante	-6978
!!	-6979
0,	-6980
It	-6981
So	-6982
Th	-6983
aj	-6984
ji	-6985
kn	-6986
my	-6987
oe	-6988
tr	-6989
wo	-6990
âl	-6991
în	-6992
▁-	-6993
▁.	-6994
Are	-6995
The	-6996
Tom	-6997
Why	-6998
Yes	-6999
add	-7000
adu	-7001
agi	-7002
ags	-7003
ahu	-7004
aig	-7005
als	-7006
ano	-7007
asc	-7008
bus	-7009
bye	-7010
cia	-7011
cot	-7012
dom	-7013
ela	-7014
emm	-7015
ero	-7016
esc	-7017
fle	-7018
gol	-7019
hol	-7020
hro	-7021
hés	-7022
ids	-7023
ior	-7024
ium	-7025
ked	-7026
ker	-7027
kin	-7028
mun	-7029
nez	-7030
nir	-7031
nom	-7032
nés	-7033
onc	-7034
onz	-7035
orc	-7036
rep	-7037
rud	-7038
rég	-7039
rép	-7040
sem	-7041
ses	-7042
top	-7043
ugg	-7044
ulg	-7045
ung	-7046
vin	-7047
wee	-7048
âme	-7049
éan	-7050
ône	-7051
ûte	-7052
œuv	-7053
▁?»	-7054
▁Hi	-7055
▁Là	-7056
▁Ob	-7057
▁Sw	-7058
▁Ur	-7059
▁Wr	-7060
▁ay	-7061
▁bû	-7062
▁dy	-7063
▁gê	-7064
▁ja	-7065
▁mè	-7066
▁ok	-7067
▁pè	-7068
▁ti	-7069
York	-7070
aces	-7071
achè	-7072
acqu	-7073
ades	-7074
agée	-7075
aies	-7076
aist	-7077
alse	-7078
anta	-7079
arif	-7080
arry	-7081
arte	-7082
ased	-7083
ases	-7084
asty	-7085
atri	-7086
aved	-7087
avie	-7088
avig	-7089
bers	-7090
cast	-7091
chan	-7092
cipe	-7093
cket	-7094
crit	-7095
cued	-7096
enus	-7097
eras	-7098
euse	-7099
ho	-7100
▁î	-7101
abe	-7102
▁Gl	-7103
▁Ju	-7104
▁ém	-7105
What	-7106
abor	-7107
acré	-7108
cies	-7109
erty	-7110
fish	-7111
five	-7112
fond	-7113
four	-7114
hern	-7115
héro	-7116
ield	-7117
igre	-7118
illy	-7119
imez	-7120
isez	-7121
isse	-7122
isés	-7123
itif	-7124
lacé	-7125
lant	-7126
lete	-7127
lève	-7128
mate	-7129
mbre	-7130
mine	-7131
naie	-7132
nais	-7133
obal	-7134
oche	-7135
oigt	-7136
oing	-7137
oité	-7138
olen	-7139
onte	-7140
onté	-7141
orde	-7142
orld	-7143
orms	-7144
orée	-7145
osen	-7146
osis	-7147
osés	-7148
ouss	-7149
pell	-7150
phan	-7151
pone	-7152
rage	-7153
rees	-7154
resh	-7155
rimé	-7156
roch	-7157
rois	-7158
rupt	-7159
sius	-7160
tenu	-7161
tery	-7162
time	-7163
tons	-7164
turb	-7165
udes	-7166
umpt	-7167
usqu	-7168
usée	-7169
utre	-7170
vest	-7171
xion	-7172
ying	-7173
èque	-7174
érer	-7175
étag	-7176
évér	-7177
▁Aim	-7178
▁Ass	-7179
▁Bou	-7180
▁Bri	-7181
▁Déb	-7182
▁Dép	-7183
▁Gir	-7184
▁Goo	-7185
▁Has	-7186
▁Hop	-7187
▁Ici	-7188
▁Jam	-7189
▁Lis	-7190
▁Men	-7191
▁Nor	-7192
▁Nul	-7193
▁Pal	-7194
▁Sit	-7195
▁Tou	-7196
▁Two	-7197
▁USB	-7198
▁Ver	-7199
Don	-7200
cons	-7201
fall	-7202
fety	-7203
ints	-7204
ipul	-7205
rian	-7206
riel	-7207
tled	-7208
▁abe	-7209
▁adj	-7210
▁agg	-7211
▁ang	-7212
▁ber	-7213
▁bin	-7214
▁blo	-7215
▁cac	-7216
▁cer	-7217
▁châ	-7218
▁cla	-7219
▁coo	-7220
▁cot	-7221
▁cra	-7222
▁dig	-7223
▁dow	-7224
▁dus	-7225
▁dév	-7226
▁eau	-7227
▁ele	-7228
▁eût	-7229
▁fan	-7230
▁fle	-7231
▁fri	-7232
▁gam	-7233
▁gay	-7234
▁gel	-7235
▁gig	-7236
▁gri	-7237
▁hen	-7238
▁hug	-7239
▁ice	-7240
▁idé	-7241
▁jog	-7242
▁joy	-7243
▁lab	-7244
▁lat	-7245
▁mas	-7246
▁mod	-7247
▁mum	-7248
▁mél	-7249
▁nap	-7250
▁oil	-7251
▁orb	-7252
▁pag	-7253
▁ped	-7254
▁pir	-7255
▁raw	-7256
▁ray	-7257
▁reb	-7258
▁reç	-7259
▁roi	-7260
▁roy	-7261
▁sai	-7262
▁sud	-7263
▁tas	-7264
▁tut	-7265
▁unc	-7266
▁wis	-7267
▁édu	-7268
▁éte	-7269
abord	-7270
acket	-7271
aised	-7272
alcul	-7273
alisé	-7274
allez	-7275
allow	-7276
ammed	-7277
andis	-7278
angle	-7279
antal	-7280
arest	-7281
arget	-7282
aring	-7283
asket	-7284
assez	-7285
asure	-7286
attoo	-7287
bling	-7288
board	-7289
bsite	-7290
bunal	-7291
cents	-7292
chent	-7293
craft	-7294
ctive	-7295
duite	-7296
eless	-7297
ender	-7298
eriez	-7299
"?	-7300
Col	-7301
flu	-7302
hod	-7303
jug	-7304
lts	-7305
uré	-7306
▁ol	-7307
▁».	-7308
enfu	-7309
eule	-7310
levé	-7311
okes	-7312
ribe	-7313
uves	-7314
▁Dég	-7315
▁Mac	-7316
▁nég	-7317
▁obs	-7318
▁péd	-7319
▁ult	-7320
arché	-7321
charg	-7322
erves	-7323
escal	-7324
essay	-7325
etime	-7326
etite	-7327
gency	-7328
guard	-7329
gérie	-7330
iants	-7331
iaque	-7332
ibles	-7333
ichée	-7334
icing	-7335
icule	-7336
ifest	-7337
ifère	-7338
ignit	-7339
imate	-7340
inded	-7341
ingue	-7342
ionne	-7343
irent	-7344
iront	-7345
irurg	-7346
ising	-7347
itate	-7348
iting	-7349
jeuné	-7350
known	-7351
light	-7352
liked	-7353
liver	-7354
lying	-7355
night	-7356
ntown	-7357
ocrat	-7358
océan	-7359
olent	-7360
order	-7361
ordes	-7362
orrig	-7363
ottes	-7364
ouble	-7365
ounce	-7366
ourvu	-7367
ouses	-7368
outez	-7369
overs	-7370
oyons	-7371
pecte	-7372
raine	-7373
redit	-7374
rived	-7375
roche	-7376
rouvé	-7377
runte	-7378
sever	-7379
sière	-7380
ually	-7381
ueill	-7382
ulous	-7383
umbus	-7384
urity	-7385
uster	-7386
veill	-7387
venty	-7388
vered	-7389
verse	-7390
verty	-7391
vingt	-7392
écrit	-7393
étang	-7394
œuvre	-7395
▁Arab	-7396
▁Bats	-7397
▁Beth	-7398
▁Boys	-7399
ené	-7400
dial	-7401
osph	-7402
ourg	-7403
ptop	-7404
rise	-7405
romp	-7406
rême	-7407
▁100	-7408
▁Ign	-7409
▁cab	-7410
agnes	-7411
anged	-7412
arket	-7413
arter	-7414
gorge	-7415
icate	-7416
insul	-7417
ledge	-7418
wered	-7419
épare	-7420
▁Cath	-7421
▁Cher	-7422
▁Deux	-7423
▁Euro	-7424
▁Face	-7425
▁Fear	-7426
▁Feel	-7427
▁Help	-7428
▁Honn	-7429
▁Kobe	-7430
▁Left	-7431
▁Long	-7432
▁Mine	-7433
▁Miss	-7434
▁Mond	-7435
▁Most	-7436
▁Once	-7437
▁Perm	-7438
▁Quit	-7439
▁Rapp	-7440
▁Seul	-7441
▁Sois	-7442
▁Soit	-7443
▁Trad	-7444
▁Vive	-7445
▁Vrai	-7446
▁agir	-7447
▁amer	-7448
▁arai	-7449
▁assi	-7450
▁aunt	-7451
▁aura	-7452
▁ayez	-7453
▁bars	-7454
▁bees	-7455
▁bite	-7456
▁blog	-7457
▁bone	-7458
▁brit	-7459
▁cash	-7460
▁cout	-7461
▁croy	-7462
▁crut	-7463
▁crée	-7464
▁créé	-7465
▁cure	-7466
▁céré	-7467
▁dear	-7468
▁dece	-7469
▁dieu	-7470
▁dors	-7471
▁doué	-7472
▁duty	-7473
▁déce	-7474
▁défi	-7475
▁eigh	-7476
▁ence	-7477
▁fain	-7478
▁faud	-7479
▁fear	-7480
▁feed	-7481
▁flav	-7482
▁forb	-7483
▁foss	-7484
▁fuel	-7485
▁gift	-7486
▁harm	-7487
▁ille	-7488
▁insp	-7489
▁ital	-7490
▁ivre	-7491
▁jail	-7492
▁jeta	-7493
▁joke	-7494
▁jupe	-7495
▁jure	-7496
▁jury	-7497
▁lady	-7498
▁lamp	-7499
iqu	-7500
▁Way	-7501
▁bags	-7502
▁iron	-7503
▁lave	-7504
▁lead	-7505
▁link	-7506
▁liqu	-7507
▁lock	-7508
▁loud	-7509
▁lune	-7510
▁lève	-7511
▁meat	-7512
▁meur	-7513
▁midi	-7514
▁miel	-7515
▁mord	-7516
▁murm	-7517
▁nier	-7518
▁nuts	-7519
▁obsc	-7520
▁outd	-7521
▁pare	-7522
▁path	-7523
▁pill	-7524
▁piss	-7525
▁pist	-7526
▁plat	-7527
▁pont	-7528
▁poup	-7529
▁prat	-7530
▁push	-7531
▁pèse	-7532
▁quas	-7533
▁rabb	-7534
▁rand	-7535
▁ravi	-7536
▁reli	-7537
▁rely	-7538
▁renv	-7539
▁role	-7540
▁rond	-7541
▁roof	-7542
▁rues	-7543
▁secr	-7544
▁ship	-7545
▁shit	-7546
▁slip	-7547
▁sons	-7548
▁sûrs	-7549
▁tact	-7550
▁tail	-7551
▁tear	-7552
▁teen	-7553
▁tenu	-7554
▁tiny	-7555
▁tool	-7556
▁twel	-7557
▁unif	-7558
▁unre	-7559
▁vent	-7560
▁vies	-7561
▁wall	-7562
▁warn	-7563
▁whom	-7564
▁zone	-7565
▁égal	-7566
▁éner	-7567
Europe	-7568
aching	-7569
action	-7570
ailles	-7571
aisser	-7572
amitié	-7573
amuser	-7574
angers	-7575
arrior	-7576
arture	-7577
dedans	-7578
endons	-7579
endorm	-7580
espoir	-7581
ession	-7582
eteria	-7583
existe	-7584
ground	-7585
habitu	-7586
hésite	-7587
ically	-7588
ilités	-7589
iseaux	-7590
issait	-7591
issors	-7592
itaire	-7593
liquée	-7594
niture	-7595
othèse	-7596
ouvrez	-7597
pelled	-7598
raight	-7599
regist	-7600
rently	-7601
resent	-7602
ressez	-7603
ulaire	-7604
ularly	-7605
venait	-7606
▁Aimez	-7607
▁April	-7608
▁Birds	-7609
▁Brown	-7610
▁Close	-7611
▁Creat	-7612
▁Crois	-7613
▁Ferme	-7614
▁Fumer	-7615
▁Happy	-7616
▁Jusqu	-7617
▁Juste	-7618
▁Latin	-7619
▁Lavez	-7620
▁Money	-7621
▁Parce	-7622
▁Portu	-7623
▁Repet	-7624
▁Right	-7625
▁Speak	-7626
▁Tenez	-7627
▁Toute	-7628
▁Tower	-7629
▁Trave	-7630
▁Unies	-7631
▁Union	-7632
▁Venus	-7633
▁Voyez	-7634
▁World	-7635
▁Write	-7636
▁absor	-7637
▁abund	-7638
▁added	-7639
▁admit	-7640
▁agent	-7641
▁aimed	-7642
▁aimée	-7643
▁ajout	-7644
▁anger	-7645
▁angle	-7646
▁arbre	-7647
▁aspir	-7648
▁avril	-7649
▁ayant	-7650
▁barre	-7651
▁barri	-7652
▁biens	-7653
▁bronz	-7654
▁calls	-7655
▁capac	-7656
▁cesse	-7657
▁champ	-7658
▁cheer	-7659
▁chess	-7660
▁cible	-7661
▁confl	-7662
▁conne	-7663
▁consé	-7664
▁coule	-7665
▁coupa	-7666
▁coups	-7667
▁cream	-7668
▁crème	-7669
▁daily	-7670
▁digne	-7671
▁dirty	-7672
▁disag	-7673
▁dises	-7674
▁doigt	-7675
▁doubt	-7676
▁dried	-7677
▁drove	-7678
▁drôle	-7679
▁débat	-7680
▁délic	-7681
▁effet	-7682
▁ended	-7683
▁enter	-7684
▁envah	-7685
▁error	-7686
▁exige	-7687
▁exigé	-7688
▁extra	-7689
▁extre	-7690
▁faces	-7691
▁false	-7692
▁feels	-7693
▁field	-7694
▁fière	-7695
▁frust	-7696
▁fâché	-7697
▁fûmes	-7698
▁galax	-7699
▁gardé	-7700
▁giant	-7701
▁glace	-7702
▁gotta	-7703
▁gradu	-7704
▁grâce	-7705
▁guère	-7706
▁guéri	-7707
▁hates	-7708
▁haute	-7709
▁idées	-7710
▁indep	-7711
▁indép	-7712
▁intim	-7713
▁jelly	-7714
▁jette	-7715
▁kilos	-7716
▁latin	-7717
▁ligne	-7718
▁loses	-7719
▁lover	-7720
▁loyer	-7721
▁lying	-7722
▁léger	-7723
▁maths	-7724
▁meals	-7725
▁medal	-7726
▁merci	-7727
▁mercy	-7728
▁merde	-7729
▁miles	-7730
▁milli	-7731
▁minor	-7732
▁monst	-7733
▁morte	-7734
▁mêmes	-7735
▁noise	-7736
▁notes	-7737
▁ocean	-7738
▁oppos	-7739
▁ordre	-7740
▁ouvre	-7741
▁panne	-7742
▁parte	-7743
▁peint	-7744
▁pills	-7745
▁plant	-7746
▁poems	-7747
▁pondu	-7748
▁porté	-7749
▁poète	-7750
▁prett	-7751
▁proof	-7752
▁prove	-7753
▁péril	-7754
▁pêche	-7755
▁recon	-7756
▁refer	-7757
▁rejet	-7758
▁repos	-7759
▁retir	-7760
▁rigol	-7761
▁robot	-7762
▁rocks	-7763
▁rough	-7764
▁répar	-7765
▁répét	-7766
▁rêves	-7767
▁saoul	-7768
▁scary	-7769
▁scold	-7770
▁scène	-7771
▁sensé	-7772
▁serré	-7773
▁shelf	-7774
▁shine	-7775
▁shock	-7776
▁shout	-7777
▁silly	-7778
▁situe	-7779
▁siège	-7780
▁sorti	-7781
▁stamp	-7782
▁steak	-7783
▁stick	-7784
▁stock	-7785
▁stone	-7786
▁storm	-7787
▁stuff	-7788
▁suitc	-7789
▁suivi	-7790
▁suppl	-7791
▁swear	-7792
▁sweat	-7793
▁sûres	-7794
▁sœurs	-7795
▁tante	-7796
▁tapis	-7797
▁tarte	-7798
▁tatou	-7799
▁terme	-7800
▁texte	-7801
▁thief	-7802
▁third	-7803
▁tiens	-7804
▁tiger	-7805
▁tight	-7806
▁timid	-7807
▁titre	-7808
▁tomba	-7809
▁tooth	-7810
▁trunk	-7811
▁viole	-7812
▁vital	-7813
▁voler	-7814
▁waist	-7815
▁wheel	-7816
▁wound	-7817
▁écart	-7818
▁échou	-7819
▁égard	-7820
▁élève	-7821
▁éping	-7822
▁évène	-7823
Algérie	-7824
ahuètes	-7825
anation	-7826
antalon	-7827
apprend	-7828
article	-7829
attrape	-7830
autoris	-7831
cemment	-7832
envoyer	-7833
excuser	-7834
honneur	-7835
horreur	-7836
ibility	-7837
ichever	-7838
iendrai	-7839
isation	-7840
occuper	-7841
ondance	-7842
othesis	-7843
ouilles	-7844
ouverte	-7845
pockets	-7846
ription	-7847
ronique	-7848
royable	-7849
urgence	-7850
veloppé	-7851
viously	-7852
visions	-7853
èvement	-7854
écouter	-7855
érature	-7856
étagère	-7857
▁Anyone	-7858
▁Atomic	-7859
▁Aucune	-7860
▁Cessez	-7861
▁Colomb	-7862
▁Commun	-7863
▁Croyez	-7864
▁Diable	-7865
▁During	-7866
▁Débarr	-7867
▁Dégage	-7868
▁Either	-7869
▁Forget	-7870
▁Google	-7871
▁Ignore	-7872
▁Italie	-7873
▁Jamais	-7874
▁Jeanne	-7875
▁Jouons	-7876
▁Mettez	-7877
▁Mother	-7878
▁absurd	-7879
▁accord	-7880
▁action	-7881
▁adoles	-7882
▁aimait	-7883
▁allerg	-7884
▁allées	-7885
▁améric	-7886
▁apparu	-7887
▁apples	-7888
▁artist	-7889
▁assise	-7890
▁assume	-7891
▁attack	-7892
▁attemp	-7893
▁auprès	-7894
▁avancé	-7895
▁barely	-7896
▁basket	-7897
▁battle	-7898
▁beaten	-7899
▁beauty	-7900
▁begins	-7901
▁bigger	-7902
▁bitter	-7903
▁border	-7904
▁bouche	-7905
▁bouill	-7906
▁cassée	-7907
▁causes	-7908
▁chacun	-7909
▁chaise	-7910
▁choisi	-7911
▁chosen	-7912
▁cigare	-7913
▁circum	-7914
▁clarif	-7915
▁coffre	-7916
▁conclu	-7917
▁confis	-7918
▁cordes	-7919
▁corpus	-7920
▁couché	-7921
▁courte	-7922
▁coûter	-7923
▁crayon	-7924
▁crédit	-7925
▁curios	-7926
▁desire	-7927
▁dessus	-7928
▁detect	-7929
▁devais	-7930
▁dingue	-7931
▁donnée	-7932
▁doutes	-7933
▁débarr	-7934
▁décédé	-7935
▁défaut	-7936
▁désast	-7937
▁détect	-7938
▁easier	-7939
▁encour	-7940
▁endomm	-7941
▁endure	-7942
▁enjoys	-7943
▁envers	-7944
▁espèce	-7945
▁essaya	-7946
▁establ	-7947
▁events	-7948
▁exclus	-7949
▁excuse	-7950
▁existe	-7951
▁fallut	-7952
▁fasses	-7953
▁faults	-7954
▁fausse	-7955
▁fiable	-7956
▁fidèle	-7957
▁forcer	-7958
▁forces	-7959
▁foutre	-7960
▁frappa	-7961
▁frappe	-7962
▁frappé	-7963
▁giving	-7964
▁goutte	-7965
▁grandi	-7966
▁ground	-7967
▁gueule	-7968
▁géante	-7969
▁génies	-7970
▁heroin	-7971
▁heurté	-7972
▁hoping	-7973
▁houses	-7974
▁idiote	-7975
▁income	-7976
▁indiff	-7977
▁intend	-7978
▁intime	-7979
▁island	-7980
▁itself	-7981
▁jaloux	-7982
▁kilomè	-7983
▁lapins	-7984
▁laptop	-7985
▁larger	-7986
▁lately	-7987
▁liking	-7988
▁liters	-7989
▁litres	-7990
▁locked	-7991
▁longue	-7992
▁lovely	-7993
▁mammal	-7994
▁manqué	-7995
▁manual	-7996
▁manuel	-7997
▁mariée	-7998
▁mature	-7999
▁matéri	-8000
▁maître	-8001
▁mechan	-8002
▁member	-8003
▁membre	-8004
▁minuit	-8005
▁moquer	-8006
▁moteur	-8007
▁mourut	-8008
▁native	-8009
▁nearly	-8010
▁nobody	-8011
▁notice	-8012
▁nuages	-8013
▁online	-8014
▁ouvrir	-8015
▁ouvrit	-8016
▁pareil	-8017
▁partis	-8018
▁passez	-8019
▁pencil	-8020
▁perman	-8021
▁phones	-8022
▁picked	-8023
▁pièces	-8024
▁poured	-8025
▁pousse	-8026
▁poussé	-8027
▁presse	-8028
▁précip	-8029
▁publié	-8030
▁puzzle	-8031
▁qualif	-8032
▁quitte	-8033
▁rained	-8034
▁recent	-8035
▁refuge	-8036
▁refusé	-8037
▁remark	-8038
▁remise	-8039
▁renomm	-8040
▁repeat	-8041
▁resist	-8042
▁restes	-8043
▁restez	-8044
▁result	-8045
▁reward	-8046
▁réclam	-8047
▁répare	-8048
▁saches	-8049
▁salary	-8050
▁sauter	-8051
▁saving	-8052
▁search	-8053
▁series	-8054
▁sieste	-8055
▁siècle	-8056
▁skinny	-8057
▁solved	-8058
▁sortis	-8059
▁soucie	-8060
▁spends	-8061
▁spider	-8062
▁status	-8063
▁stolen	-8064
▁strict	-8065
▁subway	-8066
▁suspic	-8067
▁séjour	-8068
▁tandis	-8069
▁target	-8070
▁tattoo	-8071
▁taught	-8072
▁tempor	-8073
▁thanks	-8074
▁tonner	-8075
▁traité	-8076
▁transm	-8077
▁trompe	-8078
▁urgent	-8079
▁vaisse	-8080
▁valeur	-8081
▁venait	-8082
▁venues	-8083
▁verres	-8084
▁verrou	-8085
▁viande	-8086
▁victim	-8087
▁vivait	-8088
▁volant	-8089
▁voulut	-8090
▁washed	-8091
▁weapon	-8092
▁wisdom	-8093
▁writer	-8094
▁échecs	-8095
▁échoué	-8096
▁écouté	-8097
▁élevés	-8098
▁épousé	-8099
▁épuisé	-8100
▁étudié	-8101
Amérique	-8102
addition	-8103
aimaient	-8104
ainement	-8105
emprunte	-8106
ensemble	-8107
envisage	-8108
ications	-8109
intellig	-8110
iversity	-8111
rêmement	-8112
standing	-8113
utilisez	-8114
évérance	-8115
▁Algeria	-8116
▁Appelez	-8117
▁Because	-8118
▁Bonjour	-8119
▁Celsius	-8120
▁Central	-8121
▁Correct	-8122
▁Faisons	-8123
▁Frankly	-8124
▁Italian	-8125
▁Jackson	-8126
▁Pendant	-8127
▁Perhaps	-8128
▁Pouvons	-8129
▁Prépare	-8130
▁Smoking	-8131
▁Voyager	-8132
▁YouTube	-8133
▁ability	-8134
▁absurde	-8135
▁accompl	-8136
▁amazing	-8137
▁annulée	-8138
▁anxious	-8139
▁appelle	-8140
▁approve	-8141
▁arrives	-8142
▁arrivés	-8143
▁arrière	-8144
▁arrêtée	-8145
▁bagages	-8146
▁becomes	-8147
▁belongs	-8148
▁blanket	-8149
▁boivent	-8150
▁britann	-8151
▁ceiling	-8152
▁century	-8153
▁cerveau	-8154
▁classes	-8155
▁cleaned	-8156
▁closely	-8157
▁colline	-8158
▁combust	-8159
▁commenç	-8160
▁comport	-8161
▁comprom	-8162
▁confirm	-8163
▁confisc	-8164
▁conserv	-8165
▁continu	-8166
▁cookies	-8167
▁couvert	-8168
▁covered	-8169
▁crashed	-8170
▁damaged	-8171
▁dentist	-8172
▁despise	-8173
▁devenue	-8174
▁deviner	-8175
▁digital	-8176
▁discuté	-8177
▁disparu	-8178
▁distant	-8179
▁divorce	-8180
▁domaine	-8181
▁dommage	-8182
▁dorment	-8183
▁dropped	-8184
▁drowned	-8185
▁déclaré	-8186
▁déconne	-8187
▁déjeuné	-8188
▁dépensé	-8189
▁dépêché	-8190
▁earlier	-8191
▁effectu	-8192
▁effrayé	-8193
▁entière	-8194
▁exemple	-8195
▁facture	-8196
▁ferions	-8197
▁fournit	-8198
▁further	-8199
▁guessed	-8200
▁harvest	-8201
▁heavily	-8202
▁humains	-8203
▁ignored	-8204
▁illegal	-8205
▁indique	-8206
▁invitée	-8207
▁jogging	-8208
▁joindre	-8209
▁joueurs	-8210
▁keeping	-8211
▁kissing	-8212
▁laborat	-8213
▁langage	-8214
▁letting	-8215
▁liberté	-8216
▁maisons	-8217
▁managed	-8218
▁mangent	-8219
▁manipul	-8220
▁manques	-8221
▁manquez	-8222
▁matinée	-8223
▁mistook	-8224
▁miséric	-8225
▁mondial	-8226
▁monnaie	-8227
▁nearest	-8228
▁obligée	-8229
▁observe	-8230
▁officer	-8231
▁opening	-8232
▁ordered	-8233
▁painful	-8234
▁parcour	-8235
▁parliez	-8236
▁partira	-8237
▁pauvres	-8238
▁peanuts	-8239
▁pensait	-8240
▁pensées	-8241
▁perhaps	-8242
▁personn	-8243
▁pharmac	-8244
▁plafond	-8245
▁poignée	-8246
▁poverty	-8247
▁praised	-8248
▁prepare	-8249
▁preuves	-8250
▁private	-8251
▁projets	-8252
▁prévois	-8253
▁psychic	-8254
▁période	-8255
▁pétrole	-8256
▁raisins	-8257
▁ramassé	-8258
▁reality	-8259
▁reflect	-8260
▁refuser	-8261
▁regarda	-8262
▁rentrée	-8263
▁rescued	-8264
▁retourn	-8265
▁récolte	-8266
▁sagesse	-8267
▁scholar	-8268
▁secours	-8269
▁selling	-8270
▁sentait	-8271
▁shorter	-8272
▁sisters	-8273
▁sitting	-8274
▁siècles	-8275
▁smiling	-8276
▁society	-8277
▁solaire	-8278
▁sortons	-8279
▁souffle	-8280
▁soutenu	-8281
▁spatial	-8282
▁streets	-8283
▁studied	-8284
▁studies	-8285
▁survive	-8286
▁symbole	-8287
▁tallest	-8288
▁tempête	-8289
▁termine	-8290
▁thunder	-8291
▁tickets	-8292
▁torture	-8293
▁trapped	-8294
▁tromper	-8295
▁trusted	-8296
▁unknown	-8297
▁version	-8298
▁victory	-8299
▁violent	-8300
▁visible	-8301
▁vitesse	-8302
▁walking	-8303
▁warrior	-8304
▁wasting	-8305
▁wealthy	-8306
▁website	-8307
▁workers	-8308
▁épouser	-8309
alculable	-8310
améliorer	-8311
attendais	-8312
attention	-8313
embrasser	-8314
enseigner	-8315
entraîner	-8316
interromp	-8317
ordinaire	-8318
severance	-8319
▁Apportez	-8320
▁Consider	-8321
▁Continue	-8322
▁Français	-8323
▁Monsieur	-8324
▁Nouvelle	-8325
▁Speaking	-8326
▁Vraiment	-8327
▁Whatever	-8328
▁accepted	-8329
▁activity	-8330
▁addicted	-8331
▁adorable	-8332
▁advanced	-8333
▁aimerais	-8334
▁alphabet	-8335
▁amusante	-8336
▁amélioré	-8337
▁answered	-8338
▁apparent	-8339
▁appetite	-8340
▁araignée	-8341
▁atomique	-8342
▁attaqués	-8343
▁attitude	-8344
▁autorisé	-8345
▁biscuits	-8346
▁borrowed	-8347
▁boutique	-8348
▁chambres	-8349
▁cheating	-8350
▁cherches	-8351
▁chinoise	-8352
▁chouette	-8353
▁citizens	-8354
▁citoyens	-8355
▁collabor	-8356
▁commerce	-8357
▁compatis	-8358
▁concerne	-8359
▁constant	-8360
▁contient	-8361
▁continué	-8362
▁contrary	-8363
▁convient	-8364
▁criminal	-8365
▁crossing	-8366
▁definite	-8367
▁demanded	-8368
▁dentiste	-8369
▁deprived	-8370
▁deserves	-8371
▁diplomat	-8372
▁director	-8373
▁disposer	-8374
▁disputer	-8375
▁downtown	-8376
▁dépasser	-8377
▁dépourvu	-8378
▁eighteen	-8379
▁electric	-8380
▁ennuyeux	-8381
▁enregist	-8382
▁enseigné	-8383
▁entirely	-8384
▁entrance	-8385
▁exchange	-8386
▁fatiguée	-8387
▁fighting	-8388
▁forecast	-8389
▁garderai	-8390
▁geniuses	-8391
▁gentille	-8392
▁guerrier	-8393
▁habitait	-8394
▁handsome	-8395
▁incorrig	-8396
▁intended	-8397
▁lifetime	-8398
▁majority	-8399
▁maladies	-8400
▁manifest	-8401
▁manquait	-8402
▁manquent	-8403
▁marchand	-8404
▁material	-8405
▁milliers	-8406
▁mistaken	-8407
▁mondiale	-8408
▁montrent	-8409
▁médaille	-8410
▁nouveaux	-8411
▁opinions	-8412
▁ouvertes	-8413
▁overlook	-8414
▁pantalon	-8415
▁patients	-8416
▁pauvreté	-8417
▁persuade	-8418
▁plaintes	-8419
▁pleurait	-8420
▁postpone	-8421
▁precious	-8422
▁pregnant	-8423
▁premiers	-8424
▁prennent	-8425
▁pression	-8426
▁products	-8427
▁progress	-8428
▁promener	-8429
▁promised	-8430
▁proposed	-8431
▁proposes	-8432
▁prudents	-8433
▁précieux	-8434
▁préfères	-8435
▁présenté	-8436
▁prévenue	-8437
▁prévoyez	-8438
▁puissiez	-8439
▁pénétrer	-8440
▁quarante	-8441
▁quartier	-8442
▁realized	-8443
▁regrette	-8444
▁remained	-8445
▁remonter	-8446
▁repasser	-8447
▁reporter	-8448
▁requires	-8449
▁resource	-8450
▁retrouvé	-8451
▁résident	-8452
▁réveille	-8453
▁semblent	-8454
▁shopping	-8455
▁somebody	-8456
▁spending	-8457
▁straight	-8458
▁stranger	-8459
▁stronger	-8460
▁stupides	-8461
▁suddenly	-8462
▁supposés	-8463
▁surround	-8464
▁surveill	-8465
▁suspecte	-8466
▁sérieuse	-8467
▁teachers	-8468
▁terminer	-8469
▁textbook	-8470
▁tribunal	-8471
▁veuillez	-8472
▁victoire	-8473
▁viennent	-8474
▁voudriez	-8475
▁étranger	-8476
▁étudient	-8477
Angleterre	-8478
apprécient	-8479
impression	-8480
▁According	-8481
▁Australie	-8482
▁Certaines	-8483
▁Pardonnez	-8484
▁Permettez	-8485
▁Something	-8486
▁abundance	-8487
▁addressed	-8488
▁advertise	-8489
▁aimerions	-8490
▁alentours	-8491
▁apartment	-8492
▁apparence	-8493
▁architect	-8494
▁arrogants	-8495
▁assistant	-8496
▁assurance	-8497
▁authority	-8498
▁cafeteria	-8499
▁carefully	-8500
▁celebrate	-8501
▁certaines	-8502
▁challenge	-8503
▁champagne	-8504
▁cherchait	-8505
▁compliqué	-8506
▁conscient	-8507
▁conseilla	-8508
▁conseille	-8509
▁construit	-8510
▁contacter	-8511
▁continuer	-8512
▁contraire	-8513
▁convaincu	-8514
▁correctly	-8515
▁courageux	-8516
▁critiques	-8517
▁cuisinier	-8518
▁cérémonie	-8519
▁departure	-8520
▁dernières	-8521
▁discussed	-8522
▁disposais	-8523
▁disposent	-8524
▁délicieux	-8525
▁effective	-8526
▁embrasser	-8527
▁engineers	-8528
▁explained	-8529
▁explosion	-8530
▁forbidden	-8531
▁frontière	-8532
▁furniture	-8533
▁happiness	-8534
▁histoires	-8535
▁increased	-8536
▁mammifère	-8537
▁marketing	-8538
▁multiling	-8539
▁pardonner	-8540
▁perfectly	-8541
▁personnel	-8542
▁persuader	-8543
▁pouvaient	-8544
▁practical	-8545
▁prevented	-8546
▁professor	-8547
▁programme	-8548
▁promenade	-8549
▁publicité	-8550
▁quasiment	-8551
▁quiconque	-8552
▁quotidien	-8553
▁rappelles	-8554
▁recommend	-8555
▁regardant	-8556
▁regularly	-8557
▁reprendre	-8558
▁resources	-8559
▁reviendra	-8560
▁souhaiter	-8561
▁souhaitez	-8562
▁strangers	-8563
▁supported	-8564
▁survivors	-8565
▁tentation	-8566
▁touristes	-8567
▁traveling	-8568
▁trouveras	-8569
▁trouverez	-8570
▁vengeance	-8571
▁voulaient	-8572
▁whichever	-8573
▁étrangers	-8574
▁Américains	-8575
▁Connaissez	-8576
▁Repetition	-8577
▁abandonner	-8578
▁apologized	-8579
▁architecte	-8580
▁arriverait	-8581
▁automobile	-8582
▁bouteilles	-8583
▁cacahuètes	-8584
▁collection	-8585
▁commercial	-8586
▁complaints	-8587
▁conférence	-8588
▁cuisinière	-8589
▁difficiles	-8590
▁difficulté	-8591
▁différente	-8592
▁discovered	-8593
▁disgusting	-8594
▁découverte	-8595
▁engagement	-8596
▁européenne	-8597
▁fonctionné	-8598
▁friendship	-8599
▁hypothesis	-8600
▁intéressés	-8601
▁philosophy	-8602
▁prévisions	-8603
▁resistance	-8604
▁répétition	-8605
▁résistance	-8606
▁révolution	-8607
▁scientists	-8608
▁serviettes	-8609
▁survivants	-8610
▁themselves	-8611
▁travailles	-8612
▁téléphones	-8613
▁volontaire	-8614
▁yourselves	-8615
▁Franchement	-8616
▁changements	-8617
▁chaussettes	-8618
▁commentaire	-8619
▁complaining	-8620
▁complicated	-8621
▁comprennent	-8622
▁concentrate	-8623
▁connaissent	-8624
▁constamment	-8625
▁countryside	-8626
▁débarrasser	-8627
▁established	-8628
▁examination	-8629
▁explanation	-8630
▁explication	-8631
▁expressions	-8632
▁extrêmement	-8633
▁independent	-8634
▁merveilleux	-8635
▁necessarily	-8636
▁obligations	-8637
▁perspective	-8638
▁silencieuse	-8639
▁supermarché	-8640
▁supermarket	-8641
▁température	-8642
▁travaillais	-8643
▁travaillons	-8644
▁tremblement	-8645
▁volunteered	-8646
▁actuellement	-8647
▁alternatives	-8648
▁commentaires	-8649
▁conséquences	-8650
▁incalculable	-8651
▁intelligents	-8652
▁perseverance	-8653
▁persévérance	-8654
▁pratiquement	-8655
▁électronique	-8656
▁International	-8657
▁circonstances	-8658
▁communication	-8659
▁determination	-8660
▁détermination	-8661
▁international	-8662
▁professionnel	-8663
▁régulièrement	-8664
▁signification	-8665
▁understanding	-8666
▁internationale	-8667
▁responsabilité	-8668
▁responsibility	-8669
▁supplémentaire	-8670
▁météorologiques	-8671
20.	-8672
awn	-8673
gov	-8674
rub	-8675
▁Bl	-8676
,000	-8677
Cola	-8678
Ital	-8679
abyl	-8680
ahar	-8681
anna	-8682
aomi	-8683
aska	-8684
dges	-8685
effr	-8686
evin	-8687
gnez	-8688
gypt	-8689
hode	-8690
ibet	-8691
iety	-8692
loge	-8693
lton	-8694
moon	-8695
plex	-8696
rann	-8697
rate	-8698
rica	-8699
12,	-8700
CRI	-8701
nde	-8702
ulp	-8703
▁12	-8704
▁Ab	-8705
▁Op	-8706
CRIP	-8707
Inde	-8708
jban	-8709
oins	-8710
onor	-8711
osau	-8712
pers	-8713
rigé	-8714
roph	-8715
scar	-8716
shot	-8717
ténu	-8718
uchi	-8719
ulsé	-8720
unks	-8721
ymar	-8722
èdes	-8723
éria	-8724
▁Alb	-8725
▁Apo	-8726
▁Bes	-8727
▁Bur	-8728
▁Cop	-8729
▁Joe	-8730
▁Miy	-8731
▁Moh	-8732
▁Moz	-8733
▁Nak	-8734
▁Ouv	-8735
▁Sou	-8736
▁Tuf	-8737
▁câl	-8738
▁emm	-8739
▁hul	-8740
▁hyd	-8741
▁lèv	-8742
▁map	-8743
▁nai	-8744
▁sév	-8745
▁âgé	-8746
▁île	-8747
CRIPT	-8748
Royal	-8749
Union	-8750
abyle	-8751
admis	-8752
agers	-8753
aging	-8754
akong	-8755
amako	-8756
amedi	-8757
anako	-8758
andin	-8759
anmar	-8760
annel	-8761
apier	-8762
araît	-8763
arbin	-8764
arian	-8765
asino	-8766
aspar	-8767
assin	-8768
atoub	-8769
avage	-8770
avior	-8771
azaki	-8772
aître	-8773
belie	-8774
celet	-8775
clina	-8776
elons	-8777
emain	-8778
ennon	-8779
eyser	-8780
flies	-8781
gones	-8782
hstan	-8783
icale	-8784
icots	-8785
imulé	-8786
iocre	-8787
levée	-8788
liqua	-8789
mploy	-8790
oiled	-8791
ombes	-8792
onges	-8793
ooner	-8794
opéra	-8795
orrag	-8796
oudra	-8797
ounan	-8798
plets	-8799
sm	-8800
zb	-8801
ael	-8802
ney	-8803
oko	-8804
alzb	-8805
dney	-8806
hens	-8807
igme	-8808
mall	-8809
opat	-8810
oped	-8811
rine	-8812
sect	-8813
▁Ban	-8814
▁Bel	-8815
▁Jup	-8816
▁Mam	-8817
▁atm	-8818
▁nic	-8819
▁spy	-8820
▁unp	-8821
allas	-8822
avard	-8823
ayoko	-8824
chant	-8825
ikile	-8826
olves	-8827
opter	-8828
plexe	-8829
plomb	-8830
rigez	-8831
rigér	-8832
rudit	-8833
régul	-8834
stanb	-8835
stead	-8836
ublin	-8837
uffer	-8838
ulses	-8839
umpet	-8840
ungar	-8841
uxemb	-8842
uyama	-8843
ydney	-8844
épais	-8845
êteté	-8846
înmes	-8847
▁2000	-8848
▁2001	-8849
▁Adél	-8850
▁Anki	-8851
▁Anna	-8852
▁Avat	-8853
▁Barb	-8854
▁Bask	-8855
▁Bern	-8856
▁Camb	-8857
▁Each	-8858
▁Hopk	-8859
▁Jenn	-8860
▁Jimi	-8861
▁Libé	-8862
▁Like	-8863
▁Lève	-8864
▁Merc	-8865
▁Miho	-8866
▁Mosc	-8867
▁Must	-8868
▁Phar	-8869
▁Play	-8870
▁Poll	-8871
▁Prov	-8872
▁Prés	-8873
▁Push	-8874
▁Rick	-8875
▁Seen	-8876
▁Swim	-8877
▁Ubun	-8878
▁Wash	-8879
▁Wasn	-8880
▁Year	-8881
▁altr	-8882
▁bann	-8883
▁béqu	-8884
▁cows	-8885
▁cuir	-8886
▁deaf	-8887
▁debt	-8888
▁dégr	-8889
▁dépr	-8890
▁exit	-8891
▁exot	-8892
▁fash	-8893
▁fixe	-8894
▁hoop	-8895
▁hula	-8896
▁irez	-8897
▁kara	-8898
▁loop	-8899
oci	-8900
olk	-8901
ués	-8902
ampa	-8903
anne	-8904
atur	-8905
dire	-8906
irts	-8907
ogie	-8908
uble	-8909
▁Sam	-8910
▁sir	-8911
▁tuy	-8912
▁web	-8913
▁whi	-8914
asaki	-8915
endri	-8916
ether	-8917
icier	-8918
lfred	-8919
ourne	-8920
uther	-8921
▁Frit	-8922
▁Juba	-8923
▁Mart	-8924
▁Send	-8925
▁Shin	-8926
▁Shut	-8927
▁Util	-8928
▁farm	-8929
▁hers	-8930
▁hook	-8931
▁impl	-8932
▁kilt	-8933
▁lugg	-8934
▁menu	-8935
▁neck	-8936
▁nine	-8937
▁nuis	-8938
▁okay	-8939
▁onze	-8940
▁paix	-8941
▁phon	-8942
▁puts	-8943
▁rall	-8944
▁rush	-8945
▁réel	-8946
▁sink	-8947
▁sits	-8948
▁snob	-8949
▁subs	-8950
▁surm	-8951
▁sush	-8952
▁tira	-8953
▁tiré	-8954
▁toss	-8955
▁tués	-8956
▁typh	-8957
▁urin	-8958
▁valu	-8959
▁vert	-8960
▁vire	-8961
▁viré	-8962
▁vulg	-8963
▁worn	-8964
▁yens	-8965
▁zero	-8966
▁zomb	-8967
▁éduc	-8968
▁évit	-8969
acters	-8970
admets	-8971
aimais	-8972
aimons	-8973
alking	-8974
allowe	-8975
anique	-8976
arades	-8977
arents	-8978
arlton	-8979
arrose	-8980
atists	-8981
bercul	-8982
chland	-8983
emmène	-8984
endrix	-8985
ersion	-8986
esnais	-8987
etanus	-8988
fforce	-8989
former	-8990
formez	-8991
giving	-8992
histor	-8993
iantes	-8994
ichael	-8995
icking	-8996
iguchi	-8997
imagin	-8998
kraine	-8999
béc	-9000
rop	-9001
vol	-9002
▁BB	-9003
▁ox	-9004
▁sè	-9005
aced	-9006
airo	-9007
anes	-9008
bons	-9009
gery	-9010
ires	-9011
nsbr	-9012
rale	-9013
tail	-9014
▁BBC	-9015
▁Bar	-9016
▁Dav	-9017
▁Jan	-9018
▁Pre	-9019
▁gaz	-9020
▁oxy	-9021
▁rav	-9022
agres	-9023
andat	-9024
andou	-9025
gling	-9026
illon	-9027
isure	-9028
lated	-9029
onies	-9030
otine	-9031
ounes	-9032
roite	-9033
▁Joue	-9034
▁More	-9035
▁Pain	-9036
▁Sors	-9037
▁Suck	-9038
▁fate	-9039
▁oxyg	-9040
▁pach	-9041
▁poit	-9042
▁wire	-9043
arrête	-9044
bécile	-9045
cktail	-9046
illent	-9047
inging	-9048
levant	-9049
lexion	-9050
loigne	-9051
lympic	-9052
minded	-9053
odynam	-9054
opatra	-9055
ossais	-9056
ounter	-9057
ouvris	-9058
papier	-9059
person	-9060
piracy	-9061
pocket	-9062
prints	-9063
quinze	-9064
ranges	-9065
ration	-9066
reedom	-9067
refour	-9068
ricité	-9069
shmall	-9070
terais	-9071
tering	-9072
ubliez	-9073
usterf	-9074
velous	-9075
vembre	-9076
wright	-9077
ximité	-9078
yright	-9079
équipe	-9080
étéria	-9081
▁2001,	-9082
▁Achie	-9083
▁Adéla	-9084
▁Akiko	-9085
▁Alain	-9086
▁Allah	-9087
▁Babyl	-9088
▁Belie	-9089
▁Bride	-9090
▁Cairo	-9091
▁Calif	-9092
▁Cathy	-9093
▁Check	-9094
▁Chili	-9095
▁David	-9096
▁Egypt	-9097
▁Enjoy	-9098
▁Envir	-9099
alg	-9100
azz	-9101
cie	-9102
uie	-9103
amin	-9104
assa	-9105
chau	-9106
cine	-9107
eria	-9108
léop	-9109
osex	-9110
quie	-9111
roir	-9112
rors	-9113
tead	-9114
uted	-9115
vain	-9116
▁Dro	-9117
▁Use	-9118
▁ast	-9119
▁fif	-9120
aides	-9121
ained	-9122
alism	-9123
amous	-9124
athon	-9125
barde	-9126
oyait	-9127
tower	-9128
▁Dise	-9129
▁Lune	-9130
▁Mage	-9131
▁Well	-9132
▁dégo	-9133
▁fold	-9134
▁jazz	-9135
▁pari	-9136
▁saut	-9137
▁seld	-9138
alling	-9139
famous	-9140
ormous	-9141
stitut	-9142
▁Caire	-9143
▁Cléop	-9144
▁Fanta	-9145
▁Fritz	-9146
▁Girls	-9147
▁Given	-9148
▁Grâce	-9149
▁Harry	-9150
▁Hello	-9151
▁Henan	-9152
▁Henry	-9153
▁Honni	-9154
▁JavaS	-9155
▁Jimmy	-9156
▁Julie	-9157
▁Kathy	-9158
▁Kevin	-9159
▁Magic	-9160
▁Marse	-9161
▁Milan	-9162
▁Obama	-9163
▁Oscar	-9164
▁Pader	-9165
▁Patri	-9166
▁Rempl	-9167
▁Salzb	-9168
▁Satur	-9169
▁Scots	-9170
▁Steph	-9171
▁Surve	-9172
▁Thing	-9173
▁Trang	-9174
▁Trois	-9175
▁Tufts	-9176
▁Water	-9177
▁Wayne	-9178
▁Yukio	-9179
▁abuse	-9180
▁acrob	-9181
▁adopt	-9182
▁allow	-9183
▁ambit	-9184
▁amusé	-9185
▁aphro	-9186
▁arabe	-9187
▁areas	-9188
▁argue	-9189
▁baked	-9190
▁bande	-9191
▁barks	-9192
▁based	-9193
▁battu	-9194
▁beard	-9195
▁bleue	-9196
▁bowed	-9197
▁brief	-9198
▁brisé	-9199
Ch	-9200
Je	-9201
aic	-9202
hyp	-9203
ilé	-9204
ynt	-9205
éto	-9206
éty	-9207
▁na	-9208
adil	-9209
kely	-9210
llet	-9211
ooth	-9212
riot	-9213
sain	-9214
tées	-9215
uish	-9216
umed	-9217
unch	-9218
what	-9219
égét	-9220
▁Hot	-9221
▁Nel	-9222
▁aud	-9223
▁nar	-9224
▁ron	-9225
▁équ	-9226
aises	-9227
icien	-9228
issue	-9229
▁Over	-9230
▁anch	-9231
▁rech	-9232
▁thus	-9233
▁yach	-9234
likely	-9235
égétar	-9236
étoffe	-9237
▁Autre	-9238
▁Fadil	-9239
▁Sorte	-9240
▁actif	-9241
▁affai	-9242
▁amant	-9243
▁annoy	-9244
▁brush	-9245
▁bunch	-9246
▁caché	-9247
▁caill	-9248
▁cance	-9249
▁chain	-9250
▁choos	-9251
▁chrét	-9252
▁chère	-9253
▁climb	-9254
▁cloch	-9255
▁cloud	-9256
▁collè	-9257
▁créer	-9258
▁dansa	-9259
▁dansé	-9260
▁dette	-9261
▁devel	-9262
▁devil	-9263
▁devra	-9264
▁dissu	-9265
▁dotée	-9266
▁douce	-9267
▁dynam	-9268
▁décéd	-9269
▁dégoû	-9270
▁délir	-9271
▁démar	-9272
▁dénué	-9273
▁dépit	-9274
▁eleph	-9275
▁empre	-9276
▁exorc	-9277
▁flash	-9278
▁flies	-9279
▁fondé	-9280
▁foutu	-9281
▁freak	-9282
▁freez	-9283
▁fresh	-9284
▁fries	-9285
▁fusil	-9286
▁fâche	-9287
▁fêtes	-9288
▁garer	-9289
▁gorge	-9290
▁heels	-9291
▁ideal	-9292
▁idiom	-9293
▁illég	-9294
▁irrép	-9295
▁jaune	-9296
▁jeter	-9297
▁jokes	-9298
▁jugez	-9299
Sh	-9300
anz	-9301
onf	-9302
san	-9303
sec	-9304
uan	-9305
▁!!	-9306
▁CD	-9307
▁Du	-9308
▁Em	-9309
▁âg	-9310
anou	-9311
aven	-9312
euts	-9313
king	-9314
obey	-9315
oyen	-9316
rain	-9317
▁Cal	-9318
▁Cep	-9319
▁Dad	-9320
▁dès	-9321
▁ger	-9322
▁len	-9323
▁sen	-9324
▁wre	-9325
assad	-9326
astes	-9327
chète	-9328
duire	-9329
ishim	-9330
oming	-9331
rarch	-9332
▁Arri	-9333
▁Dame	-9334
▁Nash	-9335
▁dite	-9336
▁fass	-9337
▁inst	-9338
▁intu	-9339
▁juin	-9340
▁king	-9341
▁leva	-9342
▁pose	-9343
▁tune	-9344
▁user	-9345
▁yuan	-9346
▁zéro	-9347
enious	-9348
ishima	-9349
obeyed	-9350
reuses	-9351
rouver	-9352
screen	-9353
échapp	-9354
▁Franz	-9355
▁Moyen	-9356
▁Sonia	-9357
▁cirrh	-9358
▁fonde	-9359
▁forty	-9360
▁laine	-9361
▁lancé	-9362
▁lapin	-9363
▁larme	-9364
▁lavés	-9365
▁level	-9366
▁louer	-9367
▁manus	-9368
▁maste	-9369
▁merdé	-9370
▁mosqu	-9371
▁naive	-9372
▁naked	-9373
▁navig	-9374
▁negot	-9375
▁noter	-9376
▁nuage	-9377
▁pages	-9378
▁paras	-9379
▁parod	-9380
▁patio	-9381
▁pinte	-9382
▁pitié	-9383
▁poker	-9384
▁prude	-9385
▁préco	-9386
▁puits	-9387
▁purif	-9388
▁rangé	-9389
▁rapid	-9390
▁rasse	-9391
▁ratif	-9392
▁relie	-9393
▁rempl	-9394
▁risks	-9395
▁robin	-9396
▁rompu	-9397
▁ropes	-9398
▁rural	-9399
Hi	-9400
iè	-9401
Dis	-9402
You	-9403
asy	-9404
dix	-9405
fin	-9406
iat	-9407
nce	-9408
oln	-9409
pit	-9410
zen	-9411
▁Ho	-9412
▁Ir	-9413
▁aî	-9414
▁ts	-9415
arpe	-9416
asli	-9417
enly	-9418
idow	-9419
inko	-9420
ller	-9421
oies	-9422
tent	-9423
tout	-9424
wide	-9425
▁Roc	-9426
▁Tar	-9427
▁amp	-9428
▁bee	-9429
▁toy	-9430
Displ	-9431
Salut	-9432
ceaux	-9433
inted	-9434
ôtres	-9435
▁Parl	-9436
▁Taro	-9437
▁loan	-9438
▁nick	-9439
▁poés	-9440
▁root	-9441
▁ruse	-9442
▁spir	-9443
▁stom	-9444
▁tsun	-9445
acasli	-9446
andela	-9447
incoln	-9448
élicit	-9449
▁Chile	-9450
▁Young	-9451
▁admir	-9452
▁aidée	-9453
▁basse	-9454
▁bénéf	-9455
▁endro	-9456
▁garde	-9457
▁mouch	-9458
▁nickn	-9459
▁olymp	-9460
▁outer	-9461
▁respl	-9462
▁rêver	-9463
▁sangl	-9464
▁sauta	-9465
▁sauté	-9466
▁scarf	-9467
▁scrat	-9468
▁sculp	-9469
▁seeds	-9470
▁simul	-9471
▁socks	-9472
▁songe	-9473
▁steal	-9474
▁steps	-9475
▁struc	-9476
▁style	-9477
▁subir	-9478
▁sweep	-9479
▁taste	-9480
▁taxis	-9481
▁tempt	-9482
▁tigre	-9483
▁tract	-9484
▁trade	-9485
▁trahi	-9486
▁tromb	-9487
▁trucs	-9488
▁trône	-9489
▁types	-9490
▁uncom	-9491
▁unfor	-9492
▁urged	-9493
▁urges	-9494
▁vache	-9495
▁vécut	-9496
▁vôtre	-9497
▁widow	-9498
▁woods	-9499
SD	-9500
po	-9501
bow	-9502
now	-9503
éph	-9504
alas	-9505
amis	-9506
core	-9507
ddle	-9508
esté	-9509
iant	-9510
uyez	-9511
▁Hik	-9512
▁LSD	-9513
▁Lui	-9514
▁Whe	-9515
▁méc	-9516
▁pin	-9517
▁unf	-9518
estre	-9519
oalas	-9520
oncer	-9521
ooker	-9522
rimin	-9523
tient	-9524
urine	-9525
▁Dard	-9526
▁Kell	-9527
▁Mats	-9528
▁brûl	-9529
▁fake	-9530
▁fans	-9531
▁grap	-9532
▁hong	-9533
▁jean	-9534
▁remb	-9535
▁sank	-9536
heless	-9537
▁hello	-9538
▁mente	-9539
▁monte	-9540
▁wreck	-9541
▁zones	-9542
▁Écris	-9543
▁Étais	-9544
▁Étant	-9545
▁Étiez	-9546
▁élevé	-9547
▁éléph	-9548
▁énorm	-9549
▁établ	-9550
▁étant	-9551
▁êtres	-9552
▁œuvre	-9553
Display	-9554
accuser	-9555
adresse	-9556
agressi	-9557
aissent	-9558
akhstan	-9559
ancesco	-9560
angered	-9561
appétit	-9562
arently	-9563
asparov	-9564
atorial	-9565
charged	-9566
clusion	-9567
dessous	-9568
efforce	-9569
ennuyer	-9570
estable	-9571
fforcez	-9572
fusions	-9573
glasses	-9574
gnirent	-9575
healthy	-9576
horaire	-9577
idnight	-9578
idérons	-9579
ikileak	-9580
ilities	-9581
impsons	-9582
inclina	-9583
isément	-9584
iérarch	-9585
lorable	-9586
mployed	-9587
nsbruck	-9588
ogether	-9589
ographe	-9590
opinion	-9591
oublier	-9592
oubliez	-9593
ousands	-9594
ousines	-9595
regular	-9596
sembles	-9597
stanbul	-9598
ustomed	-9599
'"	-9600
'.	-9601
.0	-9602
1.	-9603
no	-9604
xf	-9605
éa	-9606
Can	-9607
bur	-9608
foo	-9609
▁lè	-9610
back	-9611
born	-9612
hand	-9613
iced	-9614
keep	-9615
▁2.0	-9616
▁Léa	-9617
▁Med	-9618
▁Nap	-9619
▁Vas	-9620
▁gér	-9621
▁hau	-9622
▁lib	-9623
▁ras	-9624
backs	-9625
ensés	-9626
eures	-9627
isten	-9628
ivité	-9629
ousse	-9630
xford	-9631
▁Gand	-9632
▁Sato	-9633
▁brou	-9634
▁bush	-9635
▁exig	-9636
▁skip	-9637
▁tens	-9638
aiment	-9639
lettes	-9640
rouvez	-9641
▁Sacré	-9642
▁cried	-9643
▁curry	-9644
▁reads	-9645
endante	-9646
ocratie	-9647
section	-9648
ustroph	-9649
utation	-9650
échange	-9651
écrirai	-9652
éprouve	-9653
érifier	-9654
ériment	-9655
éritage	-9656
étoiles	-9657
▁Almost	-9658
▁Ankara	-9659
▁Apollo	-9660
▁Arabic	-9661
▁Avatar	-9662
▁Bamako	-9663
▁Barack	-9664
▁Before	-9665
▁Bethes	-9666
▁Breand	-9667
▁Butter	-9668
▁Cambod	-9669
▁Cathol	-9670
▁Chacun	-9671
▁Dallas	-9672
▁Double	-9673
▁Dublin	-9674
▁Durant	-9675
▁Emilia	-9676
▁Encore	-9677
▁Essaie	-9678
▁Gardez	-9679
▁Guerre	-9680
▁Hanako	-9681
▁Harbin	-9682
▁Having	-9683
▁Hitler	-9684
▁Hitomi	-9685
▁Hooker	-9686
▁Hungar	-9687
▁Indeed	-9688
▁Israel	-9689
▁Kakong	-9690
▁Keller	-9691
▁Lennon	-9692
▁Lorsqu	-9693
▁Lounes	-9694
▁Luther	-9695
▁Luxemb	-9696
▁Malgré	-9697
▁Martin	-9698
▁Matoub	-9699
aît	-9700
eut	-9701
iai	-9702
icé	-9703
oro	-9704
ura	-9705
▁Sé	-9706
gent	-9707
iché	-9708
iole	-9709
omac	-9710
once	-9711
oras	-9712
otes	-9713
vité	-9714
étou	-9715
▁Dét	-9716
▁arc	-9717
▁bêt	-9718
▁toe	-9719
▁tow	-9720
▁tox	-9721
▁van	-9722
▁yen	-9723
entit	-9724
enver	-9725
estin	-9726
ortal	-9727
stick	-9728
▁Goro	-9729
▁envy	-9730
▁jobs	-9731
▁maig	-9732
▁maqu	-9733
▁taux	-9734
aments	-9735
angles	-9736
ducted	-9737
encont	-9738
infect	-9739
ivable	-9740
minine	-9741
mostat	-9742
éreuse	-9743
▁Steve	-9744
▁grond	-9745
▁plong	-9746
▁prose	-9747
▁sauce	-9748
▁scand	-9749
▁trous	-9750
▁virer	-9751
▁épicé	-9752
resseux	-9753
▁Change	-9754
▁Moscow	-9755
▁Mozart	-9756
▁Naples	-9757
▁Neymar	-9758
▁Noriko	-9759
▁Palais	-9760
▁Projet	-9761
▁Reiche	-9762
▁Sentez	-9763
▁Serais	-9764
▁Shakes	-9765
▁Shinob	-9766
▁Sooner	-9767
▁Sortez	-9768
▁Stampa	-9769
▁Sydney	-9770
▁Travai	-9771
▁Trouve	-9772
▁Turkey	-9773
▁Ubuntu	-9774
▁Uranus	-9775
▁Voyons	-9776
▁Winter	-9777
▁Yukawa	-9778
▁aboard	-9779
▁actuar	-9780
▁adress	-9781
▁advise	-9782
▁algéri	-9783
▁allant	-9784
▁alphan	-9785
▁amuser	-9786
▁analog	-9787
▁ancest	-9788
▁announ	-9789
▁aperçu	-9790
▁applau	-9791
▁applic	-9792
▁approp	-9793
▁arriva	-9794
▁auquel	-9795
▁auront	-9796
▁avenir	-9797
▁avouer	-9798
▁balcon	-9799
da	-9800
ieu	-9801
lej	-9802
oed	-9803
osl	-9804
êle	-9805
▁eB	-9806
▁om	-9807
▁os	-9808
erte	-9809
gest	-9810
rony	-9811
uine	-9812
wood	-9813
êpes	-9814
▁Heu	-9815
▁Mme	-9816
▁Ted	-9817
▁enr	-9818
▁fed	-9819
▁fêt	-9820
▁lad	-9821
▁lin	-9822
▁nue	-9823
▁thy	-9824
▁tru	-9825
▁wet	-9826
iciel	-9827
image	-9828
ldman	-9829
ollow	-9830
▁Alej	-9831
▁Sent	-9832
▁eBay	-9833
▁exag	-9834
▁liar	-9835
▁lust	-9836
▁pomp	-9837
achète	-9838
ierais	-9839
onnait	-9840
vember	-9841
▁adapt	-9842
▁detai	-9843
▁effic	-9844
▁fainé	-9845
▁fiche	-9846
▁frame	-9847
▁fumée	-9848
▁funds	-9849
▁lisez	-9850
▁miens	-9851
▁opera	-9852
▁rever	-9853
▁shows	-9854
▁sourc	-9855
arrivée	-9856
avaient	-9857
ciseaux	-9858
ffement	-9859
llywood	-9860
pection	-9861
▁Follow	-9862
▁Things	-9863
▁ballon	-9864
▁banana	-9865
▁banane	-9866
▁barric	-9867
▁batter	-9868
▁blague	-9869
▁blancs	-9870
▁bloody	-9871
▁bounce	-9872
▁boycot	-9873
▁bridge	-9874
▁bullet	-9875
▁cambri	-9876
▁campus	-9877
▁canard	-9878
▁casino	-9879
▁castle	-9880
▁cathol	-9881
▁center	-9882
▁cercle	-9883
▁chairs	-9884
▁chargé	-9885
▁charme	-9886
▁chèque	-9887
▁cities	-9888
▁climat	-9889
▁clouds	-9890
▁cloudy	-9891
▁compan	-9892
▁compon	-9893
▁compét	-9894
▁conjug	-9895
▁conver	-9896
▁cooper	-9897
▁corner	-9898
▁crains	-9899
As	-9900
No	-9901
Re	-9902
put	-9903
roc	-9904
xte	-9905
arah	-9906
igné	-9907
ilip	-9908
lley	-9909
mant	-9910
nest	-9911
ocop	-9912
roid	-9913
term	-9914
▁Pic	-9915
▁Vis	-9916
▁boo	-9917
▁dop	-9918
▁hid	-9919
▁ine	-9920
▁ink	-9921
▁ion	-9922
▁lux	-9923
igine	-9924
inson	-9925
nesty	-9926
peare	-9927
reuve	-9928
zième	-9929
▁Fill	-9930
▁Forg	-9931
▁Sont	-9932
▁abat	-9933
▁affr	-9934
▁bain	-9935
▁cess	-9936
▁clef	-9937
▁fork	-9938
▁gêné	-9939
▁init	-9940
▁mere	-9941
▁swar	-9942
cently	-9943
motion	-9944
▁Being	-9945
▁Pacif	-9946
▁Sarah	-9947
▁Their	-9948
▁brand	-9949
▁monot	-9950
▁moves	-9951
▁rival	-9952
▁étage	-9953
emploie	-9954
obinson	-9955
respons	-9956
▁Hummer	-9957
▁Passez	-9958
▁Philip	-9959
▁Picass	-9960
▁amount	-9961
▁bûcher	-9962
▁closet	-9963
▁croyez	-9964
▁damage	-9965
▁debate	-9966
▁defeat	-9967
▁defect	-9968
▁degrés	-9969
▁desert	-9970
▁devast	-9971
▁diagon	-9972
▁dirais	-9973
▁donnez	-9974
▁dreams	-9975
▁durent	-9976
▁déclen	-9977
▁décoll	-9978
▁défilé	-9979
▁défini	-9980
▁dégagé	-9981
▁dégoût	-9982
▁dépréc	-9983
▁député	-9984
▁dévast	-9985
▁eighty	-9986
▁enrich	-9987
▁envahi	-9988
▁errors	-9989
▁exacte	-9990
▁exempl	-9991
▁faudra	-9992
▁fellow	-9993
▁female	-9994
▁fièvre	-9995
▁flavor	-9996
▁fluctu	-9997
▁flying	-9998
▁francs	-9999
AM	-10000
alé	-10001
eup	-10002
fou	-10003
idu	-10004
ius	-10005
lin	-10006
pse	-10007
▁LO	-10008
▁ôt	-10009
agan	-10010
ança	-10011
eday	-10012
ffer	-10013
jong	-10014
oirs	-10015
onça	-10016
orus	-10017
uise	-10018
▁...	-10019
▁Bye	-10020
▁RAM	-10021
▁Squ	-10022
▁Tim	-10023
▁bow	-10024
▁buv	-10025
▁cad	-10026
▁duo	-10027
▁pow	-10028
▁sow	-10029
▁ôta	-10030
chers	-10031
erlin	-10032
ividu	-10033
lipse	-10034
ockey	-10035
ouves	-10036
▁cymb	-10037
▁doul	-10038
▁dust	-10039
▁fest	-10040
▁fier	-10041
▁gain	-10042
▁hire	-10043
▁leaf	-10044
▁load	-10045
▁miny	-10046
▁onto	-10047
▁russ	-10048
Italie	-10049
ackers	-10050
entrer	-10051
icians	-10052
oitées	-10053
écuter	-10054
étaire	-10055
étions	-10056
▁armes	-10057
▁grass	-10058
▁needn	-10059
▁orgue	-10060
▁prouv	-10061
▁redéc	-10062
▁récit	-10063
▁taire	-10064
▁voici	-10065
alisman	-10066
archers	-10067
ference	-10068
ortable	-10069
▁Berlin	-10070
▁Existe	-10071
▁Nelson	-10072
▁Reagan	-10073
▁advent	-10074
▁doulou	-10075
▁ensole	-10076
▁except	-10077
▁festiv	-10078
▁fortes	-10079
▁fridge	-10080
▁fright	-10081
▁frites	-10082
▁fucked	-10083
▁fusill	-10084
▁gardes	-10085
▁garlic	-10086
▁genius	-10087
▁geyser	-10088
▁glissa	-10089
▁glissé	-10090
▁global	-10091
▁géants	-10092
▁habits	-10093
▁height	-10094
▁hockey	-10095
▁humeur	-10096
▁ignora	-10097
▁impoli	-10098
▁incomp	-10099
Ne	-10100
off	-10101
oya	-10102
iaux	-10103
▁Deb	-10104
▁Inc	-10105
▁Kaz	-10106
▁bég	-10107
▁cho	-10108
affic	-10109
endez	-10110
endie	-10111
iable	-10112
oisir	-10113
uiser	-10114
uisez	-10115
▁Bras	-10116
▁Colb	-10117
▁Find	-10118
▁Vide	-10119
▁aidé	-10120
▁banc	-10121
▁duck	-10122
▁panc	-10123
▁slid	-10124
▁soum	-10125
▁swam	-10126
▁vier	-10127
▁wide	-10128
import	-10129
oisirs	-10130
▁Bonne	-10131
▁Naomi	-10132
▁Tibet	-10133
▁aperç	-10134
▁aside	-10135
▁await	-10136
▁bruns	-10137
▁indis	-10138
▁meeny	-10139
▁saper	-10140
▁sheer	-10141
▁suffe	-10142
▁taill	-10143
▁winds	-10144
agasaki	-10145
ajouter	-10146
fection	-10147
onnable	-10148
▁Andrew	-10149
▁Debuss	-10150
▁Moscou	-10151
▁critic	-10152
▁deviné	-10153
▁excess	-10154
▁headed	-10155
▁incond	-10156
▁infant	-10157
▁insane	-10158
▁ironed	-10159
▁issues	-10160
▁jacket	-10161
▁joined	-10162
▁jouais	-10163
▁jouant	-10164
▁jumped	-10165
▁lavage	-10166
▁leader	-10167
▁leaped	-10168
▁lichée	-10169
▁limite	-10170
▁lourde	-10171
▁lourds	-10172
▁lundis	-10173
▁lèvres	-10174
▁malent	-10175
▁malgré	-10176
▁manage	-10177
▁manche	-10178
▁mandat	-10179
▁masoch	-10180
▁master	-10181
▁mayonn	-10182
▁menacé	-10183
▁messed	-10184
▁method	-10185
▁milieu	-10186
▁mirent	-10187
▁misery	-10188
▁monkey	-10189
▁monter	-10190
▁montré	-10191
▁murder	-10192
▁narrow	-10193
▁neiger	-10194
▁négoci	-10195
▁nôtres	-10196
▁obligé	-10197
▁occupe	-10198
▁olives	-10199
avia	-10200
duce	-10201
iled	-10202
mail	-10203
tait	-10204
▁Cut	-10205
▁Got	-10206
▁mah	-10207
▁mob	-10208
ascin	-10209
assit	-10210
geons	-10211
human	-10212
phere	-10213
érent	-10214
▁Cart	-10215
▁Matt	-10216
▁Pass	-10217
▁adop	-10218
▁butt	-10219
▁clai	-10220
▁fert	-10221
▁lack	-10222
▁mass	-10223
▁orte	-10224
▁pair	-10225
▁shoe	-10226
agnole	-10227
apping	-10228
artres	-10229
assion	-10230
astard	-10231
enfuir	-10232
eurent	-10233
ourser	-10234
ouvrit	-10235
énigme	-10236
▁Sally	-10237
▁carré	-10238
▁drape	-10239
▁eager	-10240
▁marie	-10241
▁plast	-10242
adapter	-10243
itèrent	-10244
▁Ouvrez	-10245
▁admiré	-10246
▁athlet	-10247
▁claims	-10248
▁claire	-10249
▁essaim	-10250
▁faille	-10251
▁fascin	-10252
▁favori	-10253
▁fertil	-10254
▁forest	-10255
▁horror	-10256
▁montez	-10257
▁nagent	-10258
▁ongles	-10259
▁opposé	-10260
▁orbite	-10261
▁parfum	-10262
▁parten	-10263
▁passés	-10264
▁pattes	-10265
▁pencha	-10266
▁perdes	-10267
▁perdit	-10268
▁permet	-10269
▁phosph	-10270
▁photog	-10271
▁pieces	-10272
▁pirate	-10273
▁places	-10274
▁plaire	-10275
▁pleuve	-10276
▁plural	-10277
▁poches	-10278
▁pocket	-10279
▁poudre	-10280
▁poulet	-10281
▁poèmes	-10282
▁pressé	-10283
▁pronun	-10284
▁proved	-10285
▁précéd	-10286
▁punish	-10287
▁putain	-10288
▁pétrin	-10289
▁quinze	-10290
▁quitta	-10291
▁radium	-10292
▁ralent	-10293
▁ration	-10294
▁rayons	-10295
▁recipe	-10296
▁refusa	-10297
▁relief	-10298
▁rendit	-10299
abs	-10300
law	-10301
lfu	-10302
obé	-10303
bish	-10304
ctob	-10305
nera	-10306
▁Hab	-10307
▁Tra	-10308
▁rub	-10309
▁épe	-10310
ators	-10311
onses	-10312
rimer	-10313
venus	-10314
▁Eric	-10315
▁Fred	-10316
▁June	-10317
▁Open	-10318
▁ages	-10319
▁auto	-10320
▁bamb	-10321
▁dumb	-10322
▁esch	-10323
▁pred	-10324
▁rope	-10325
▁tack	-10326
ienced	-10327
itting	-10328
object	-10329
onible	-10330
riages	-10331
ustice	-10332
▁Entre	-10333
▁Nobel	-10334
▁aient	-10335
▁corde	-10336
▁demie	-10337
▁loupé	-10338
▁piège	-10339
▁roast	-10340
▁saisi	-10341
▁shame	-10342
▁soirs	-10343
▁sulfu	-10344
ristina	-10345
seigner	-10346
▁Désolé	-10347
▁Gables	-10348
▁chauff	-10349
▁conven	-10350
▁former	-10351
▁handed	-10352
▁manner	-10353
▁outils	-10354
▁proven	-10355
▁rented	-10356
▁repris	-10357
▁rescue	-10358
▁retiré	-10359
▁risked	-10360
▁rompre	-10361
▁royale	-10362
▁récent	-10363
▁réchau	-10364
▁récomp	-10365
▁régime	-10366
▁régler	-10367
▁réparé	-10368
▁révéla	-10369
▁safety	-10370
▁saigne	-10371
▁sainte	-10372
▁saisit	-10373
▁salons	-10374
▁samedi	-10375
▁scream	-10376
▁secrét	-10377
▁seemed	-10378
▁seldom	-10379
▁selfie	-10380
▁sentez	-10381
▁sentis	-10382
▁seriez	-10383
▁sermon	-10384
▁serons	-10385
▁shaken	-10386
▁signer	-10387
▁skiing	-10388
▁smiled	-10389
▁smooth	-10390
▁softly	-10391
▁soldat	-10392
▁sortez	-10393
▁soucis	-10394
▁souper	-10395
▁sprang	-10396
▁sprint	-10397
▁square	-10398
▁stable	-10399
asp	-10400
tud	-10401
▁Rh	-10402
▁dw	-10403
Mary	-10404
cond	-10405
olet	-10406
rées	-10407
érir	-10408
▁Ins	-10409
▁Pré	-10410
▁mug	-10411
check	-10412
ioned	-10413
onnée	-10414
▁Mong	-10415
▁bond	-10416
▁clap	-10417
▁créd	-10418
▁dogm	-10419
▁fins	-10420
▁hamb	-10421
▁loge	-10422
▁malt	-10423
▁nord	-10424
▁refl	-10425
▁rése	-10426
▁span	-10427
▁spin	-10428
▁wars	-10429
issant	-10430
orange	-10431
réable	-10432
▁Akagi	-10433
▁Avons	-10434
▁Brush	-10435
▁Sachs	-10436
▁Three	-10437
▁aurez	-10438
▁brave	-10439
▁captu	-10440
▁chand	-10441
▁diary	-10442
▁dwarf	-10443
▁errat	-10444
▁final	-10445
▁mordu	-10446
▁rende	-10447
▁sobre	-10448
▁speed	-10449
▁spite	-10450
▁stade	-10451
istoire	-10452
visager	-10453
▁Africa	-10454
▁attard	-10455
▁craint	-10456
▁credit	-10457
▁dumber	-10458
▁fermée	-10459
▁feront	-10460
▁fondit	-10461
▁fortun	-10462
▁hambur	-10463
▁joking	-10464
▁passes	-10465
▁paused	-10466
▁statut	-10467
▁stupéf	-10468
▁suffer	-10469
▁supéri	-10470
▁survie	-10471
▁sweaty	-10472
▁sèches	-10473
▁séisme	-10474
▁tenais	-10475
▁tenter	-10476
▁terres	-10477
▁terror	-10478
▁tester	-10479
▁timbre	-10480
▁tourna	-10481
▁tourte	-10482
▁traite	-10483
▁treats	-10484
▁trouva	-10485
▁tuyaux	-10486
▁twelve	-10487
▁tyrann	-10488
▁uneasy	-10489
▁valide	-10490
▁valise	-10491
▁vanter	-10492
▁venons	-10493
▁vidéos	-10494
▁vierge	-10495
▁villes	-10496
▁violin	-10497
▁violon	-10498
▁voisin	-10499
ee	-10500
bec	-10501
ôti	-10502
oule	-10503
çues	-10504
ôtés	-10505
▁Emb	-10506
▁Esp	-10507
▁Hey	-10508
▁Isn	-10509
▁Sab	-10510
▁ign	-10511
▁lec	-10512
aviez	-10513
ossib	-10514
zaine	-10515
▁Pick	-10516
▁Rese	-10517
▁bead	-10518
▁crap	-10519
▁crue	-10520
▁earr	-10521
▁memb	-10522
▁null	-10523
▁posé	-10524
▁rôti	-10525
▁semi	-10526
▁wool	-10527
▁écri	-10528
▁Monte	-10529
▁Sabah	-10530
▁Tiens	-10531
▁aimez	-10532
▁alert	-10533
▁côtés	-10534
▁décor	-10535
▁décès	-10536
▁essuy	-10537
▁fatal	-10538
▁guard	-10539
▁model	-10540
▁nasty	-10541
▁overs	-10542
▁plats	-10543
▁sauva	-10544
▁wider	-10545
▁étang	-10546
enfance	-10547
istence	-10548
orragie	-10549
ouviens	-10550
êtement	-10551
▁Though	-10552
▁access	-10553
▁beings	-10554
▁brings	-10555
▁decept	-10556
▁dirent	-10557
▁divers	-10558
▁décour	-10559
▁découv	-10560
▁déçues	-10561
▁expert	-10562
▁notion	-10563
▁offert	-10564
▁pilule	-10565
▁player	-10566
▁prêtre	-10567
▁solide	-10568
▁source	-10569
▁though	-10570
▁visité	-10571
▁weighs	-10572
▁whisky	-10573
▁yachts	-10574
▁éclair	-10575
▁économ	-10576
▁écrasé	-10577
▁érudit	-10578
▁étonné	-10579
▁étudia	-10580
acquérir	-10581
afficher	-10582
agissait	-10583
algiques	-10584
alloween	-10585
appelons	-10586
apprends	-10587
approuve	-10588
aremment	-10589
arrivait	-10590
arrivera	-10591
atisfied	-10592
autorisa	-10593
dictions	-10594
endormir	-10595
ennuyais	-10596
enseigne	-10597
entraîne	-10598
ervilles	-10599
RIC	-10600
oly	-10601
mely	-10602
▁Six	-10603
▁awk	-10604
▁fog	-10605
▁moe	-10606
affir	-10607
aison	-10608
aries	-10609
athed	-10610
eness	-10611
going	-10612
ordan	-10613
ports	-10614
tered	-10615
uants	-10616
vente	-10617
▁Aren	-10618
▁Asse	-10619
▁Leur	-10620
▁Mali	-10621
▁Then	-10622
▁Tick	-10623
▁acid	-10624
▁asks	-10625
▁blag	-10626
▁code	-10627
▁drag	-10628
▁flot	-10629
▁moqu	-10630
▁noms	-10631
▁noon	-10632
▁piég	-10633
▁poil	-10634
▁tape	-10635
▁weld	-10636
▁wimp	-10637
aurait	-10638
▁aware	-10639
▁backp	-10640
▁bigot	-10641
▁decor	-10642
▁dérou	-10643
▁déton	-10644
▁rifle	-10645
▁rooms	-10646
▁saint	-10647
▁stare	-10648
▁veuve	-10649
▁wrink	-10650
arrière	-10651
irurgie	-10652
▁Jordan	-10653
▁Really	-10654
▁Sayoko	-10655
▁asking	-10656
▁détour	-10657
▁ferait	-10658
▁giants	-10659
▁montra	-10660
▁posées	-10661
▁recons	-10662
▁réconc	-10663
▁sentit	-10664
▁utiles	-10665
affirmer	-10666
escalier	-10667
exercice	-10668
exprimer	-10669
habituer	-10670
humanité	-10671
icipated	-10672
ignorais	-10673
ikileaks	-10674
imaginer	-10675
iversité	-10676
landaise	-10677
llemands	-10678
ondément	-10679
opportun	-10680
orescent	-10681
scissors	-10682
umptions	-10683
umérique	-10684
éteindre	-10685
évidence	-10686
▁Akagawa	-10687
▁Amnesty	-10688
▁Anticip	-10689
▁Anybody	-10690
▁Asseyez	-10691
▁Attrape	-10692
▁Barbara	-10693
▁Belfast	-10694
▁Believe	-10695
▁Bernard	-10696
▁Besides	-10697
▁Bizarre	-10698
▁Capital	-10699
tue	-10700
alty	-10701
anks	-10702
ervé	-10703
état	-10704
▁Coc	-10705
▁aig	-10706
▁foc	-10707
auves	-10708
herbe	-10709
rosse	-10710
utent	-10711
▁Coca	-10712
▁Down	-10713
▁Hand	-10714
▁Luck	-10715
▁Park	-10716
▁Rome	-10717
▁athl	-10718
▁bomb	-10719
▁cult	-10720
▁dict	-10721
▁garé	-10722
▁scol	-10723
▁trap	-10724
ançois	-10725
stract	-10726
▁Apart	-10727
▁boite	-10728
▁displ	-10729
▁dépou	-10730
▁euros	-10731
▁fried	-10732
▁hated	-10733
▁hurle	-10734
▁jouet	-10735
▁meets	-10736
▁minus	-10737
▁motel	-10738
▁overc	-10739
▁seins	-10740
▁écris	-10741
atistes	-10742
▁Newton	-10743
▁buying	-10744
▁career	-10745
▁diriez	-10746
▁dormis	-10747
▁excité	-10748
▁infect	-10749
▁loving	-10750
▁malins	-10751
▁mineur	-10752
▁patent	-10753
▁pleins	-10754
▁posted	-10755
▁promet	-10756
▁sorrow	-10757
▁surnom	-10758
▁survéc	-10759
▁throne	-10760
▁totale	-10761
▁vivons	-10762
adiction	-10763
artement	-10764
attement	-10765
idential	-10766
▁Carlton	-10767
▁Colbert	-10768
▁Commons	-10769
▁Debussy	-10770
▁Dépêche	-10771
▁Environ	-10772
▁Essayez	-10773
▁Express	-10774
▁Forgive	-10775
▁Félicit	-10776
▁Germans	-10777
▁Goldman	-10778
▁Grandma	-10779
▁Hendrix	-10780
▁Heureux	-10781
▁Hopkins	-10782
▁However	-10783
▁Instead	-10784
▁Johnson	-10785
▁Jupiter	-10786
▁Kakongo	-10787
▁Libérez	-10788
▁Lincoln	-10789
▁Mandela	-10790
▁Michael	-10791
▁Mishima	-10792
▁Mondays	-10793
▁Olympic	-10794
▁Oubliez	-10795
▁Parents	-10796
▁Parfois	-10797
▁Parlons	-10798
▁Pharamp	-10799
00.	-10800
00?	-10801
iqué	-10802
ocks	-10803
ugar	-10804
well	-10805
▁Gaz	-10806
▁Max	-10807
▁pis	-10808
▁éta	-10809
▁œuf	-10810
aimez	-10811
ville	-10812
▁Gaza	-10813
▁Nara	-10814
▁Russ	-10815
▁affe	-10816
▁golf	-10817
▁lien	-10818
▁obey	-10819
▁pint	-10820
▁proc	-10821
▁racc	-10822
achute	-10823
blings	-10824
minist	-10825
▁Jenny	-10826
▁Marty	-10827
▁Sorry	-10828
▁Sugar	-10829
▁Vince	-10830
▁assur	-10831
▁breve	-10832
▁cares	-10833
▁chute	-10834
▁chœur	-10835
▁conte	-10836
▁cured	-10837
▁fully	-10838
▁hurts	-10839
▁ideas	-10840
▁magas	-10841
▁moque	-10842
▁objet	-10843
▁pendu	-10844
▁sends	-10845
▁singe	-10846
▁sonné	-10847
▁vends	-10848
▁vents	-10849
▁voyez	-10850
ologist	-10851
énavant	-10852
▁aspect	-10853
▁beside	-10854
▁boucle	-10855
▁entret	-10856
▁forcée	-10857
▁guides	-10858
▁laissa	-10859
▁oldest	-10860
▁prince	-10861
▁réside	-10862
▁tables	-10863
▁tourne	-10864
▁tourné	-10865
▁établi	-10866
▁études	-10867
▁étudie	-10868
utiliser	-10869
▁Picasso	-10870
▁Presque	-10871
▁Resnais	-10872
▁Running	-10873
▁Sachiko	-10874
▁Scandin	-10875
▁Shinobu	-10876
▁Shounan	-10877
▁Stephen	-10878
▁Strange	-10879
▁Talking	-10880
▁Trouvez	-10881
▁Turquie	-10882
▁Unbelie	-10883
▁Whoever	-10884
▁absente	-10885
▁accusée	-10886
▁admired	-10887
▁adorent	-10888
▁advance	-10889
▁adviser	-10890
▁affairs	-10891
▁aimable	-10892
▁answers	-10893
▁appears	-10894
▁apprend	-10895
▁appréci	-10896
▁appétit	-10897
▁arguing	-10898
▁arrival	-10899
eng	-10900
life	-10901
osse	-10902
rure	-10903
▁Ann	-10904
▁tan	-10905
arked	-10906
orize	-10907
▁Bite	-10908
▁cell	-10909
▁dame	-10910
▁gagn	-10911
▁nail	-10912
▁raté	-10913
aidera	-10914
aliste	-10915
artial	-10916
aucune	-10917
elling	-10918
enlève	-10919
ieuses	-10920
ologue	-10921
écoute	-10922
▁Bread	-10923
▁Group	-10924
▁Mirac	-10925
▁Reven	-10926
▁aveug	-10927
▁awoke	-10928
▁choux	-10929
▁hunch	-10930
▁knees	-10931
▁laide	-10932
▁seize	-10933
▁skier	-10934
▁tends	-10935
▁tenue	-10936
▁veste	-10937
▁égale	-10938
struire	-10939
utilise	-10940
▁Alfred	-10941
▁Banque	-10942
▁Montre	-10943
▁Pardon	-10944
▁arrête	-10945
▁attiré	-10946
▁brille	-10947
▁chutes	-10948
▁decent	-10949
▁fermés	-10950
▁flight	-10951
▁humour	-10952
▁intact	-10953
▁intéri	-10954
▁mostly	-10955
▁moving	-10956
▁mépris	-10957
▁pointe	-10958
▁praise	-10959
▁prenez	-10960
▁prenne	-10961
▁probab	-10962
▁suivit	-10963
▁tardif	-10964
▁termes	-10965
▁treize	-10966
▁vienne	-10967
▁wasted	-10968
ommation	-10969
▁actions	-10970
▁artiste	-10971
▁assembl	-10972
▁asseoir	-10973
▁assurer	-10974
▁athlete	-10975
▁attaque	-10976
▁attirer	-10977
▁aveugle	-10978
▁awkward	-10979
▁bagnole	-10980
▁balayer	-10981
▁bananas	-10982
▁bananes	-10983
▁barking	-10984
▁benefit	-10985
▁berceau	-10986
▁besoins	-10987
▁biggest	-10988
▁billion	-10989
▁blocked	-10990
▁blondes	-10991
▁bloquée	-10992
▁blowing	-10993
▁bonbons	-10994
▁bonjour	-10995
▁breasts	-10996
▁briller	-10997
▁brioche	-10998
▁bygones	-10999
hém	-11000
oms	-11001
brot	-11002
expl	-11003
plan	-11004
racy	-11005
champ	-11006
gence	-11007
▁cabb	-11008
▁cram	-11009
▁hits	-11010
▁hung	-11011
▁rass	-11012
▁sacs	-11013
aliers	-11014
ongler	-11015
▁Amuse	-11016
▁Doesn	-11017
▁apeur	-11018
▁balls	-11019
▁bliss	-11020
▁coins	-11021
▁dolls	-11022
▁défie	-11023
▁excès	-11024
▁fianç	-11025
▁fiers	-11026
▁indic	-11027
▁milit	-11028
▁noirs	-11029
▁north	-11030
▁passa	-11031
▁slain	-11032
▁spicy	-11033
▁versé	-11034
▁vivez	-11035
allumer	-11036
erreurs	-11037
habille	-11038
écoutes	-11039
▁Append	-11040
▁amused	-11041
▁chunks	-11042
▁excusé	-11043
▁fairly	-11044
▁grapes	-11045
▁génial	-11046
▁mangez	-11047
▁mouche	-11048
▁orders	-11049
▁pensée	-11050
▁planté	-11051
▁slight	-11052
▁soient	-11053
▁triché	-11054
▁whites	-11055
▁yellow	-11056
▁Whether	-11057
▁caillou	-11058
▁capture	-11059
▁carried	-11060
▁catalog	-11061
▁chaises	-11062
▁chapter	-11063
▁charged	-11064
▁charges	-11065
▁cheated	-11066
▁chewing	-11067
▁chienne	-11068
▁château	-11069
▁clients	-11070
▁closest	-11071
▁college	-11072
▁colours	-11073
▁conform	-11074
▁connait	-11075
▁contain	-11076
▁contenu	-11077
▁corrigé	-11078
▁coupent	-11079
▁couples	-11080
▁courses	-11081
▁cousine	-11082
▁cousins	-11083
▁coûtera	-11084
▁croirez	-11085
▁croyons	-11086
▁curieux	-11087
▁curious	-11088
▁customs	-11089
▁degrees	-11090
▁delayed	-11091
▁dessins	-11092
▁destroy	-11093
▁devions	-11094
▁devoted	-11095
▁dialect	-11096
▁diamant	-11097
▁diamond	-11098
▁dieting	-11099
ciel	-11100
alises	-11101
▁Shame	-11102
▁bague	-11103
▁races	-11104
▁turns	-11105
▁vitre	-11106
▁Sandra	-11107
▁allows	-11108
▁breaks	-11109
▁sacred	-11110
▁differs	-11111
▁diffère	-11112
▁dinosau	-11113
▁diplôme	-11114
▁dirigea	-11115
▁dispute	-11116
▁disturb	-11117
▁dormant	-11118
▁drawing	-11119
▁dresses	-11120
▁déclina	-11121
▁décédée	-11122
▁défaite	-11123
▁défauts	-11124
▁délicie	-11125
▁dépassé	-11126
▁dépense	-11127
▁déserte	-11128
▁désirez	-11129
▁détaill	-11130
▁détendu	-11131
▁easiest	-11132
▁effacer	-11133
▁effects	-11134
▁endings	-11135
▁endurer	-11136
▁engager	-11137
▁engrais	-11138
▁enjoyed	-11139
▁ensuite	-11140
▁entrées	-11141
▁envoyer	-11142
▁escaped	-11143
▁exactes	-11144
▁examine	-11145
▁example	-11146
▁explode	-11147
▁exploit	-11148
▁faciles	-11149
▁faibles	-11150
▁faisiez	-11151
▁fassiez	-11152
▁feuille	-11153
▁follows	-11154
▁founded	-11155
▁fourche	-11156
▁fournir	-11157
▁frapper	-11158
▁frappée	-11159
▁galaxie	-11160
▁general	-11161
▁genuine	-11162
▁goodbye	-11163
▁graines	-11164
▁grandma	-11165
▁gratuit	-11166
▁greatly	-11167
▁grosses	-11168
▁grounds	-11169
▁guerres	-11170
▁gunshot	-11171
▁gâteaux	-11172
▁habiles	-11173
▁halfway	-11174
▁handful	-11175
▁handled	-11176
▁happier	-11177
▁hardest	-11178
▁hearing	-11179
▁heavens	-11180
▁helpful	-11181
▁hilltop	-11182
▁homosex	-11183
▁honesty	-11184
▁hôpital	-11185
▁illégal	-11186
▁imaginé	-11187
▁immorte	-11188
▁impliqu	-11189
▁importe	-11190
▁imprimé	-11191
▁inconce	-11192
▁inconnu	-11193
▁instead	-11194
▁inutile	-11195
▁irrégul	-11196
▁italien	-11197
▁kidding	-11198
▁knocked	-11199
▁laisses	-11200
▁leather	-11201
▁lecture	-11202
▁leisure	-11203
▁liquide	-11204
▁locales	-11205
▁located	-11206
▁logique	-11207
▁loisirs	-11208
▁luggage	-11209
▁madness	-11210
▁malheur	-11211
▁maligne	-11212
▁malsain	-11213
▁marrant	-11214
▁maîtris	-11215
▁meaning	-11216
▁mesures	-11217
▁meurtre	-11218
▁mission	-11219
▁moderne	-11220
▁murmura	-11221
▁mystery	-11222
▁mystère	-11223
▁méduses	-11224
▁méprise	-11225
▁méthode	-11226
▁nageant	-11227
▁nombres	-11228
▁normale	-11229
▁normaux	-11230
▁nourrir	-11231
▁nowhere	-11232
▁numbers	-11233
▁objects	-11234
▁obliged	-11235
▁obtient	-11236
▁offense	-11237
▁operate	-11238
▁oublier	-11239
▁outrage	-11240
▁paierai	-11241
▁papiers	-11242
▁parasol	-11243
▁paresse	-11244
▁parlais	-11245
▁parlons	-11246
▁paroles	-11247
▁partage	-11248
▁parvenu	-11249
▁passant	-11250
▁passera	-11251
▁passion	-11252
▁patriot	-11253
▁peindre	-11254
▁percent	-11255
▁perform	-11256
▁permett	-11257
▁pianist	-11258
▁pierres	-11259
▁plainte	-11260
▁planque	-11261
▁planter	-11262
▁pleuvra	-11263
▁pluriel	-11264
▁portant	-11265
▁portent	-11266
▁portion	-11267
▁poupées	-11268
▁pousser	-11269
▁prennes	-11270
▁pressée	-11271
▁pretend	-11272
▁printed	-11273
▁prirent	-11274
▁prisonn	-11275
▁proposa	-11276
▁propose	-11277
▁prouver	-11278
▁précoce	-11279
▁prétend	-11280
▁prévoir	-11281
▁puisque	-11282
▁puisses	-11283
▁purpose	-11284
▁quarter	-11285
▁rabbits	-11286
▁racines	-11287
▁raconte	-11288
▁raconté	-11289
▁rainbow	-11290
▁receive	-11291
▁recette	-11292
▁reduced	-11293
▁rejoins	-11294
▁related	-11295
▁relaxed	-11296
▁remarqu	-11297
▁rencard	-11298
▁rendait	-11299
▁rendrai	-11300
▁rentres	-11301
▁replace	-11302
▁reprise	-11303
▁requête	-11304
▁retardé	-11305
▁retenir	-11306
▁retired	-11307
▁retirer	-11308
▁revenge	-11309
▁revenus	-11310
▁reviend	-11311
▁rigoler	-11312
▁robuste	-11313
▁rubbish	-11314
▁réalisé	-11315
▁réclamé	-11316
▁réduire	-11317
▁réduite	-11318
▁répéter	-11319
▁réussir	-11320
▁réussit	-11321
▁saisons	-11322
▁scolded	-11323
▁seasons	-11324
▁seconds	-11325
▁secrète	-11326
▁serions	-11327
▁settled	-11328
▁seventy	-11329
▁shaking	-11330
▁sharpen	-11331
▁shocked	-11332
▁skipped	-11333
▁smarter	-11334
▁smashed	-11335
▁soirées	-11336
▁soldier	-11337
▁soluble	-11338
▁sombres	-11339
▁soudure	-11340
▁sources	-11341
▁speaker	-11342
▁sportif	-11343
▁stacked	-11344
▁staring	-11345
▁statist	-11346
▁stepped	-11347
▁stomach	-11348
▁supposé	-11349
▁surgery	-11350
▁terrain	-11351
▁texting	-11352
▁theatre	-11353
▁tiendra	-11354
▁tombent	-11355
▁towards	-11356
▁traitez	-11357
▁translu	-11358
▁travels	-11359
▁tricher	-11360
▁tristes	-11361
▁trouvée	-11362
▁trumpet	-11363
▁tsunami	-11364
▁urgence	-11365
▁valable	-11366
▁valises	-11367
▁vendent	-11368
▁verdict	-11369
▁veuille	-11370
▁victime	-11371
▁visions	-11372
▁vivions	-11373
▁volcano	-11374
▁voleurs	-11375
▁voyante	-11376
▁végétar	-11377
▁warming	-11378
▁Écoutez	-11379
▁Éloigne	-11380
▁échappé	-11381
▁écraser	-11382
▁égalité	-11383
▁épingle	-11384
abandonne	-11385
andouille	-11386
appellent	-11387
appellera	-11388
attendrai	-11389
autoroute	-11390
existence	-11391
intéresse	-11392
issionner	-11393
opération	-11394
shmallows	-11395
usterfuck	-11396
étudiants	-11397
évolution	-11398
▁Aimerais	-11399
▁Apprends	-11400
▁Bethesda	-11401
▁Brasilia	-11402
▁Californ	-11403
▁Catholic	-11404
▁Chartres	-11405
▁Cherchez	-11406
▁Columbus	-11407
▁Corrigez	-11408
▁Creative	-11409
▁Cristina	-11410
▁Dardanus	-11411
▁Droplets	-11412
▁Efforcez	-11413
▁Egyptian	-11414
▁Ensemble	-11415
▁Facebook	-11416
▁François	-11417
▁Informez	-11418
▁Istanbul	-11419
▁Jeanette	-11420
▁Kasparov	-11421
▁Miyazaki	-11422
▁Mohammed	-11423
▁Mondrian	-11424
▁Nagasaki	-11425
▁Nakagawa	-11426
▁November	-11427
▁Painting	-11428
▁Patricia	-11429
▁Portugal	-11430
▁Préparez	-11431
▁Rappelez	-11432
▁Recently	-11433
▁Reichelt	-11434
▁Remember	-11435
▁Robinson	-11436
▁Saturday	-11437
▁Simpsons	-11438
▁Somebody	-11439
▁Souviens	-11440
▁Swimming	-11441
▁Voudrais	-11442
▁Warcraft	-11443
▁Wherever	-11444
▁abducted	-11445
▁abeilles	-11446
▁abstract	-11447
▁abstrait	-11448
▁accueill	-11449
▁activité	-11450
▁addition	-11451
▁ajoutées	-11452
▁amateurs	-11453
▁ambassad	-11454
▁ancêtres	-11455
▁aphrodis	-11456
▁appealed	-11457
▁applying	-11458
▁approche	-11459
▁appropri	-11460
▁approxim	-11461
▁apprécié	-11462
▁arriving	-11463
▁arrivons	-11464
▁arrivées	-11465
▁articles	-11466
▁assassin	-11467
▁assister	-11468
▁athletic	-11469
▁attraper	-11470
▁audience	-11471
▁autorité	-11472
▁bataille	-11473
▁behaving	-11474
▁behavior	-11475
▁betrayed	-11476
▁bicycles	-11477
▁blankets	-11478
▁bleeding	-11479
▁blessure	-11480
▁bouillie	-11481
▁bracelet	-11482
▁breaking	-11483
▁bronzage	-11484
▁buttocks	-11485
▁calories	-11486
▁capacité	-11487
▁capitale	-11488
▁carrying	-11489
▁changera	-11490
▁cocktail	-11491
▁colonies	-11492
▁commandé	-11493
▁comments	-11494
▁composed	-11495
▁composée	-11496
▁confiant	-11497
▁confirmé	-11498
▁confront	-11499
▁contents	-11500
▁contrain	-11501
▁craignez	-11502
▁critical	-11503
▁crutches	-11504
▁deciding	-11505
▁defeated	-11506
▁derniers	-11507
▁describe	-11508
▁destinée	-11509
▁detailed	-11510
▁diagnost	-11511
▁dialecte	-11512
▁disagree	-11513
▁discover	-11514
▁disliked	-11515
▁disposez	-11516
▁distribu	-11517
▁divorced	-11518
▁divorcer	-11519
▁document	-11520
▁drapeaux	-11521
▁drawings	-11522
▁dreaming	-11523
▁déménage	-11524
▁dépenser	-11525
▁désastre	-11526
▁détruire	-11527
▁educated	-11528
▁efficace	-11529
▁embrasse	-11530
▁embrassé	-11531
▁employer	-11532
▁employés	-11533
▁emprunté	-11534
▁empêcher	-11535
▁enceinte	-11536
▁endormie	-11537
▁endroits	-11538
▁enormous	-11539
▁entendez	-11540
▁entendit	-11541
▁entendus	-11542
▁entreten	-11543
▁enverrai	-11544
▁espérons	-11545
▁everyday	-11546
▁examined	-11547
▁examiner	-11548
▁exercice	-11549
▁expenses	-11550
▁expliqua	-11551
▁exploser	-11552
▁faithful	-11553
▁familier	-11554
▁fertiliz	-11555
▁festival	-11556
▁fluently	-11557
▁forehead	-11558
▁forgiven	-11559
▁félicité	-11560
▁gambling	-11561
▁gratuite	-11562
▁habitude	-11563
▁handball	-11564
▁happiest	-11565
▁haricots	-11566
▁hiérarch	-11567
▁humiliée	-11568
▁illusion	-11569
▁imbécile	-11570
▁immortal	-11571
▁immédiat	-11572
▁improved	-11573
▁incident	-11574
▁inconnue	-11575
▁individu	-11576
▁industri	-11577
▁influenc	-11578
▁inquiète	-11579
▁insolent	-11580
▁instruct	-11581
▁intérêts	-11582
▁joueuses	-11583
▁jugement	-11584
▁laitiers	-11585
▁laughter	-11586
▁location	-11587
▁lumières	-11588
▁maltrait	-11589
▁manuelle	-11590
▁marathon	-11591
▁marchant	-11592
▁mastered	-11593
▁meanings	-11594
▁messages	-11595
▁midnight	-11596
▁morceaux	-11597
▁mouchoir	-11598
▁movement	-11599
▁médecine	-11600
▁méritons	-11601
▁natation	-11602
▁nickname	-11603
▁nicotine	-11604
▁notebook	-11605
▁novembre	-11606
▁occupées	-11607
▁occurred	-11608
▁offended	-11609
▁onéreuse	-11610
▁opposite	-11611
▁ordering	-11612
▁ordinary	-11613
▁original	-11614
▁pachinko	-11615
▁pardonné	-11616
▁pareille	-11617
▁parlerai	-11618
▁partager	-11619
▁parvenir	-11620
▁passerai	-11621
▁paycheck	-11622
▁peaceful	-11623
▁perplexe	-11624
▁photocop	-11625
▁pianiste	-11626
▁pistolet	-11627
▁pizzeria	-11628
▁plaindre	-11629
▁pleasant	-11630
▁pleuvait	-11631
▁poitrine	-11632
▁policier	-11633
▁positive	-11634
▁possèdes	-11635
▁pouvions	-11636
▁practice	-11637
▁presence	-11638
▁preserve	-11639
▁previous	-11640
▁prisoner	-11641
▁produced	-11642
▁profiter	-11643
▁prononça	-11644
▁property	-11645
▁précises	-11646
▁préparés	-11647
▁présente	-11648
▁présents	-11649
▁punition	-11650
▁pyramids	-11651
▁quantité	-11652
▁rappelez	-11653
▁rapporte	-11654
▁rational	-11655
▁recevoir	-11656
▁recharge	-11657
▁recovery	-11658
▁refusait	-11659
▁regarded	-11660
▁regardes	-11661
▁reliable	-11662
▁relieved	-11663
▁renommée	-11664
▁required	-11665
▁respecté	-11666
▁resplend	-11667
▁resterai	-11668
▁retarded	-11669
▁retraite	-11670
▁ridicule	-11671
▁réfrigér	-11672
▁répandit	-11673
▁réponses	-11674
▁réserver	-11675
▁résister	-11676
▁résoudra	-11677
▁résultat	-11678
▁réussira	-11679
▁sanglots	-11680
▁sauvages	-11681
▁secondes	-11682
▁security	-11683
▁separate	-11684
▁seraient	-11685
▁setbacks	-11686
▁shooting	-11687
▁shoulder	-11688
▁software	-11689
▁southern	-11690
▁soutient	-11691
▁speeding	-11692
▁squirrel	-11693
▁stalling	-11694
▁stations	-11695
▁steering	-11696
▁suffered	-11697
▁suitable	-11698
▁suitcase	-11699
▁superflu	-11700
▁supplies	-11701
▁supporte	-11702
▁surplomb	-11703
▁survenir	-11704
▁survival	-11705
▁swinging	-11706
▁séparées	-11707
▁tableaux	-11708
▁talisman	-11709
▁teenager	-11710
▁tendency	-11711
▁tensions	-11712
▁terminée	-11713
▁thirteen	-11714
▁tonnerre	-11715
▁torrents	-11716
▁tourists	-11717
▁tournent	-11718
▁traversé	-11719
▁trembler	-11720
▁triangle	-11721
▁trombone	-11722
▁trompeur	-11723
▁tropical	-11724
▁trusting	-11725
▁tubercul	-11726
▁ultimate	-11727
▁uniforms	-11728
▁unlikely	-11729
▁utilisée	-11730
▁valuable	-11731
▁vieilles	-11732
▁violence	-11733
▁visitera	-11734
▁voyagent	-11735
▁vulgaire	-11736
▁whenever	-11737
▁wrinkled	-11738
▁Écossais	-11739
▁écureuil	-11740
abandonner	-11741
abattement	-11742
achèterais	-11743
apporterai	-11744
entretenir	-11745
eutschland	-11746
expériment	-11747
imaginable	-11748
impossible	-11749
infectants	-11750
stitutrice	-11751
érablement	-11752
▁Achieving	-11753
▁Alejandra	-11754
▁Allemagne	-11755
▁Allemands	-11756
▁Attendons	-11757
▁Autrefois	-11758
▁Breakfast	-11759
▁Cependant	-11760
▁Christian	-11761
▁Cleopatra	-11762
▁Cléopâtre	-11763
▁Congratul	-11764
▁Francesco	-11765
▁Gandrange	-11766
▁Halloween	-11767
▁Hungarian	-11768
▁Innsbruck	-11769
▁Marseille	-11770
▁Matsuyama	-11771
▁Paderborn	-11772
▁Président	-11773
▁Pythagore	-11774
▁Récemment	-11775
▁Sentences	-11776
▁Surveille	-11777
▁Taniguchi	-11778
▁Thousands	-11779
▁Traduisez	-11780
▁Traveling	-11781
▁Wikileaks	-11782
▁abandoned	-11783
▁abondance	-11784
▁accidents	-11785
▁allergies	-11786
▁améliorée	-11787
▁américain	-11788
▁ancestors	-11789
▁appointed	-11790
▁attendons	-11791
▁attracted	-11792
▁autorisée	-11793
▁autrefois	-11794
▁bienvenue	-11795
▁blessures	-11796
▁boracasli	-11797
▁béquilles	-11798
▁cafétéria	-11799
▁camarades	-11800
▁carrefour	-11801
▁certainly	-11802
▁character	-11803
▁cherchais	-11804
▁classroom	-11805
▁collected	-11806
▁commander	-11807
▁commettre	-11808
▁community	-11809
▁compelled	-11810
▁complaint	-11811
▁compléter	-11812
▁compromis	-11813
▁confisqué	-11814
▁confusion	-11815
▁considéré	-11816
▁contented	-11817
▁contrarié	-11818
▁copyright	-11819
▁corrected	-11820
▁countless	-11821
▁curiosité	-11822
▁customers	-11823
▁deceptive	-11824
▁demandais	-11825
▁demeurent	-11826
▁designers	-11827
▁developed	-11828
▁devinette	-11829
▁devinrent	-11830
▁dimension	-11831
▁diplomate	-11832
▁discovery	-11833
▁discrimin	-11834
▁disobeyed	-11835
▁disputent	-11836
▁distances	-11837
▁documents	-11838
▁doucement	-11839
▁débutants	-11840
▁décourage	-11841
▁déménager	-11842
▁déterminé	-11843
▁développé	-11844
▁effectuer	-11845
▁emergency	-11846
▁encounter	-11847
▁enseigner	-11848
▁essential	-11849
▁excellent	-11850
▁expecting	-11851
▁expliquer	-11852
▁extremely	-11853
▁financial	-11854
▁financier	-11855
▁fondement	-11856
▁forcément	-11857
▁française	-11858
▁fusillade	-11859
▁féliciter	-11860
▁gaspiller	-11861
▁generally	-11862
▁guimauves	-11863
▁guimbarde	-11864
▁habitudes	-11865
▁hamburger	-11866
▁hautement	-11867
▁honeymoon	-11868
▁horrified	-11869
▁hypothèse	-11870
▁illusions	-11871
▁implement	-11872
▁improving	-11873
▁infantile	-11874
▁ingenious	-11875
▁instantly	-11876
▁insulting	-11877
▁intercept	-11878
▁interests	-11879
▁intimidée	-11880
▁irregular	-11881
▁irrespons	-11882
▁irréproch	-11883
▁jellyfish	-11884
▁knowledge	-11885
▁largement	-11886
▁leftovers	-11887
▁lendemain	-11888
▁magnitude	-11889
▁meilleurs	-11890
▁mensonges	-11891
▁mignonnes	-11892
▁milliards	-11893
▁montagnes	-11894
▁mountains	-11895
▁objection	-11896
▁obviously	-11897
▁operation	-11898
▁ordinaire	-11899
▁organized	-11900
▁paintings	-11901
▁paresseux	-11902
▁partagent	-11903
▁partially	-11904
▁participé	-11905
▁peintures	-11906
▁permanent	-11907
▁photosynt	-11908
▁pleasures	-11909
▁poisonous	-11910
▁pourrions	-11911
▁poursuivi	-11912
▁poussière	-11913
▁pratiquer	-11914
▁pretended	-11915
▁prettiest	-11916
▁pronounce	-11917
▁propriété	-11918
▁proximité	-11919
▁prudentes	-11920
▁préparées	-11921
▁préserver	-11922
▁prévision	-11923
▁pyramides	-11924
▁rationnel	-11925
▁reconnais	-11926
▁reconnait	-11927
▁regardais	-11928
▁regardait	-11929
▁rencontra	-11930
▁represent	-11931
▁respected	-11932
▁réflexion	-11933
▁réveiller	-11934
▁sandwichs	-11935
▁scientist	-11936
▁sculpture	-11937
▁searching	-11938
▁secretary	-11939
▁standards	-11940
▁structure	-11941
▁suivantes	-11942
▁sunscreen	-11943
▁supérieur	-11944
▁suspicion	-11945
▁séjourner	-11946
▁tatouages	-11947
▁testament	-11948
▁toilettes	-11949
▁toothache	-11950
▁transmets	-11951
▁transpire	-11952
▁trompette	-11953
▁trouvâmes	-11954
▁unhealthy	-11955
▁vacations	-11956
▁vaisselle	-11957
▁vieillard	-11958
▁viendrait	-11959
agressivité	-11960
expliquerai	-11961
intéressent	-11962
opportunité	-11963
orientation	-11964
▁Apparently	-11965
▁Australian	-11966
▁Capitalism	-11967
▁Cartwright	-11968
▁Christophe	-11969
▁Débarrasse	-11970
▁Finalement	-11971
▁Incroyable	-11972
▁JavaSCRIPT	-11973
▁Kazakhstan	-11974
▁Luxembourg	-11975
▁Pythagoras	-11976
▁University	-11977
▁accustomed	-11978
▁aggression	-11979
▁appréciera	-11980
▁artificial	-11981
▁assistance	-11982
▁augmentent	-11983
▁blackboard	-11984
▁brouillard	-11985
▁challenger	-11986
▁characters	-11987
▁chercheurs	-11988
▁cigarettes	-11989
▁claustroph	-11990
▁climatolog	-11991
▁collisions	-11992
▁combustion	-11993
▁commission	-11994
▁communauté	-11995
▁communisme	-11996
▁compagnons	-11997
▁companions	-11998
▁compliquée	-11999
▁components	-12000
▁comportent	-12001
▁composants	-12002
▁compromise	-12003
▁concernant	-12004
▁conclusion	-12005
▁conditions	-12006
▁conducteur	-12007
▁conference	-12008
▁confidence	-12009
▁connaissez	-12010
▁considérer	-12011
▁considérée	-12012
▁conspiracy	-12013
▁constantly	-12014
▁construite	-12015
▁contribuer	-12016
▁contribute	-12017
▁convaincre	-12018
▁convaincus	-12019
▁devastated	-12020
▁deviennent	-12021
▁disappoint	-12022
▁discharged	-12023
▁discourage	-12024
▁dispersion	-12025
▁distinguer	-12026
▁downstairs	-12027
▁endommagée	-12028
▁enregistré	-12029
▁eschatolog	-12030
▁eventually	-12031
▁forgetting	-12032
▁formulaire	-12033
▁frightened	-12034
▁humiliated	-12035
▁increasing	-12036
▁indication	-12037
▁influences	-12038
▁inspection	-12039
▁intéressez	-12040
▁intéressée	-12041
▁invitation	-12042
▁japonaises	-12043
▁kilomètres	-12044
▁limousines	-12045
▁magnifique	-12046
▁malentendu	-12047
▁maquillage	-12048
▁maternelle	-12049
▁mayonnaise	-12050
▁meilleures	-12051
▁mourraient	-12052
▁médicament	-12053
▁originaire	-12054
▁overlooked	-12055
▁pacifiques	-12056
▁participer	-12057
▁particular	-12058
▁perception	-12059
▁perfection	-12060
▁pickpocket	-12061
▁plaisanter	-12062
▁playground	-12063
▁politician	-12064
▁ponctuelle	-12065
▁poursuivre	-12066
▁practicing	-12067
▁pretending	-12068
▁productifs	-12069
▁productive	-12070
▁progresser	-12071
▁protection	-12072
▁préférence	-12073
▁punishment	-12074
▁recherches	-12075
▁recognized	-12076
▁rembourser	-12077
▁rencontres	-12078
▁respectent	-12079
▁revolution	-12080
▁réparation	-12081
▁sandwiches	-12082
▁satisfaite	-12083
▁scratching	-12084
▁secondaire	-12085
▁secrétaire	-12086
▁simulation	-12087
▁spectators	-12088
▁supportive	-12089
▁surprendre	-12090
▁surprising	-12091
▁sympathize	-12092
▁technology	-12093
▁temptation	-12094
▁thermostat	-12095
▁threatened	-12096
▁traditions	-12097
▁unemployed	-12098
▁énormément	-12099
▁étrangères	-12100
▁évènements	-12101
apprécierais	-12102
intelligence	-12103
ministration	-12104
▁Apparemment	-12105
▁Bizarrement	-12106
▁Christopher	-12107
▁Pickpockets	-12108
▁Researchers	-12109
▁Shakespeare	-12110
▁TickDisplay	-12111
▁adolescents	-12112
▁advertising	-12113
▁apparentées	-12114
▁appartement	-12115
▁application	-12116
▁assumptions	-12117
▁automobiles	-12118
▁britannique	-12119
▁capitalisme	-12120
▁chairperson	-12121
▁clusterfuck	-12122
▁comprendrai	-12123
▁conditionné	-12124
▁confiscated	-12125
▁connaissons	-12126
▁couvertures	-12127
▁description	-12128
▁dictatorial	-12129
▁differences	-12130
▁différentes	-12131
▁directement	-12132
▁disappeared	-12133
▁distinguish	-12134
▁distributed	-12135
▁electricity	-12136
▁embarrassée	-12137
▁entièrement	-12138
▁essentielle	-12139
▁experienced	-12140
▁experiences	-12141
▁fiançailles	-12142
▁fluorescent	-12143
▁impressionn	-12144
▁indifférent	-12145
▁inspiration	-12146
▁instruments	-12147
▁intéressées	-12148
▁laboratoire	-12149
▁millionaire	-12150
▁miséricorde	-12151
▁médicaments	-12152
▁personality	-12153
▁personnages	-12154
▁principales	-12155
▁professeurs	-12156
▁professions	-12157
▁proviennent	-12158
▁précisément	-12159
▁préfèrerais	-12160
▁recherchons	-12161
▁recommended	-12162
▁regrettable	-12163
▁rencontrons	-12164
▁rencontrées	-12165
▁residential	-12166
▁resourceful	-12167
▁separatists	-12168
▁soulagement	-12169
▁spectateurs	-12170
▁suggestions	-12171
▁thermodynam	-12172
▁translation	-12173
▁transported	-12174
▁Baskervilles	-12175
▁Thanksgiving	-12176
▁Unbelievable	-12177
▁applications	-12178
▁comprendrais	-12179
▁confectionné	-12180
▁congratulate	-12181
▁consequences	-12182
▁consommation	-12183
▁dernièrement	-12184
▁difficulties	-12185
▁démissionner	-12186
▁embarrassing	-12187
▁expectations	-12188
▁gouttelettes	-12189
▁impressionné	-12190
▁incorrigible	-12191
▁indépendante	-12192
▁informations	-12193
▁informatique	-12194
▁intelligence	-12195
▁intéressante	-12196
▁marshmallows	-12197
▁merveilleuse	-12198
▁millionnaire	-12199
▁neighborhood	-12200
▁presidential	-12201
▁professional	-12202
▁profondément	-12203
▁purification	-12204
▁relationship	-12205
▁représentant	-12206
▁soudainement	-12207
▁surveillance	-12208
▁séparatistes	-12209
▁transfusions	-12210
▁travaillerai	-12211
▁tremblements	-12212
identification	-12213
▁Félicitations	-12214
▁circumstances	-12215
▁clarification	-12216
▁collaborative	-12217
▁contradiction	-12218
▁correspondait	-12219
▁correspondant	-12220
▁disparaissent	-12221
▁impressionnée	-12222
▁manifestation	-12223
▁prononciation	-12224
▁pronunciation	-12225
▁préoccupation	-12226
▁questionnaire	-12227
▁réfrigérateur	-12228
▁résidentielle	-12229
▁uncomfortable	-12230
▁universitaire	-12231
▁advertisements	-12232
▁délicieusement	-12233
▁habituellement	-12234
▁principalement	-12235
▁Congratulations	-12236
▁personnellement	-12237
▁quotidiennement	-12238
▁supplémentaires	-12239
See	-12240
piè	-12241
Asie	-12242
ooms	-12243
▁CDs	-12244
▁Irl	-12245
▁LOR	-12246
Sahar	-12247
absor	-12248
acués	-12249
allpo	-12250
amaic	-12251
asius	-12252
choed	-12253
clasp	-12254
condu	-12255
euplé	-12256
froid	-12257
giant	-12258
hypot	-12259
iègle	-12260
jugés	-12261
lanes	-12262
ojban	-12263
rgent	-12264
sects	-12265
throp	-12266
ugosl	-12267
zanne	-12268
éhens	-12269
étype	-12270
▁BRIC	-12271
▁Blue	-12272
▁Calm	-12273
▁Copy	-12274
▁Embr	-12275
▁Fawn	-12276
▁Insp	-12277
▁Janv	-12278
▁Know	-12279
▁LORD	-12280
▁MacB	-12281
▁Préf	-12282
▁Rhin	-12283
▁Stud	-12284
▁aîné	-12285
▁bowl	-12286
▁bégu	-12287
▁fêté	-12288
▁luxe	-12289
▁ombr	-12290
▁réno	-12291
▁Étud	-12292
▁âgée	-12293
▁âgés	-12294
Argent	-12295
Christ	-12296
Oxford	-12297
Really	-12298
allpox	-12299
dotes	-12300
▁gelé	-12301
▁hugs	-12302
▁pedd	-12303
anksha	-12304
burant	-12305
cdotes	-12306
engage	-12307
ennuie	-12308
iquons	-12309
lliant	-12310
marked	-12311
mestre	-12312
mousse	-12313
ocracy	-12314
ocrate	-12315
parked	-12316
pièces	-12317
ronyme	-12318
sectes	-12319
secure	-12320
sticks	-12321
ualism	-12322
volter	-12323
yanmar	-12324
édrale	-12325
étypes	-12326
▁Above	-12327
▁Albig	-12328
▁Banks	-12329
▁Enfin	-12330
▁Habit	-12331
▁Haven	-12332
▁Maman	-12333
▁Mamie	-12334
▁Octob	-12335
▁Préfé	-12336
▁Rhine	-12337
▁Rooms	-12338
▁Wanna	-12339
▁aigui	-12340
▁alley	-12341
▁amené	-12342
▁atmos	-12343
▁cadav	-12344
▁clefs	-12345
▁couté	-12346
▁créez	-12347
▁câlin	-12348
▁dwell	-12349
▁décev	-12350
▁fifty	-12351
▁focus	-12352
▁forks	-12353
▁gigot	-12354
▁gonor	-12355
▁grasp	-12356
▁grimp	-12357
▁grive	-12358
▁idéal	-12359
▁labou	-12360
▁linen	-12361
▁loads	-12362
▁lèver	-12363
▁meurt	-12364
▁olive	-12365
▁outdo	-12366
▁pagod	-12367
▁pissé	-12368
▁pliai	-12369
▁poêle	-12370
▁pédic	-12371
▁rebel	-12372
▁reçut	-12373
▁ronch	-12374
▁royal	-12375
▁scrub	-12376
▁sushi	-12377
▁towel	-12378
▁toxic	-12379
▁truly	-12380
▁twelf	-12381
▁unfit	-12382
▁unpro	-12383
▁wanna	-12384
▁whipl	-12385
▁wimps	-12386
▁énerg	-12387
▁énerv	-12388
▁évita	-12389
Myanmar	-12390
Saharan	-12391
Ukraine	-12392
absence	-12393
absorbe	-12394
aminées	-12395
ancholy	-12396
annonce	-12397
avarder	-12398
bearing	-12399
oussa	-12400
▁Hasn	-12401
▁cerf	-12402
lantic	-12403
reshes	-12404
▁Dying	-12405
▁Norwe	-12406
▁adjud	-12407
▁angri	-12408
▁binoc	-12409
▁bouss	-12410
▁coton	-12411
▁érupt	-12412
chantée	-12413
charger	-12414
conduct	-12415
ctangle	-12416
emorize	-12417
engager	-12418
enverra	-12419
estrate	-12420
feiting	-12421
fession	-12422
givable	-12423
horloge	-12424
hédrale	-12425
insulte	-12426
invente	-12427
lighted	-12428
mantins	-12429
minelle	-12430
oogling	-12431
oplanes	-12432
oraison	-12433
osphère	-12434
oussard	-12435
pologue	-12436
préhens	-12437
putable	-12438
razenly	-12439
related	-12440
roduire	-12441
rologie	-12442
rupteur	-12443
ténuées	-12444
uddenly	-12445
uggling	-12446
umption	-12447
uttered	-12448
çonnait	-12449
échappa	-12450
éclipse	-12451
éminine	-12452
éniable	-12453
épreuve	-12454
épuiser	-12455
▁20,000	-12456
▁Achète	-12457
▁Active	-12458
▁Agency	-12459
▁Alaska	-12460
▁Annule	-12461
▁Argent	-12462
▁Assois	-12463
▁Brosse	-12464
▁Burmes	-12465
▁Calmez	-12466
▁Credit	-12467
▁Déterm	-12468
▁Enlève	-12469
▁Esprit	-12470
▁Espèce	-12471
▁Europé	-12472
▁Global	-12473
▁Habits	-12474
▁Hikers	-12475
▁Iasius	-12476
▁Kabyle	-12477
▁Koalas	-12478
▁Listen	-12479
▁Lojban	-12480
▁Mongol	-12481
▁Norweg	-12482
▁Oliver	-12483
▁Quebec	-12484
▁Rendez	-12485
▁Russie	-12486
▁Second	-12487
▁Soyons	-12488
▁Sucker	-12489
▁Touche	-12490
▁Verrou	-12491
▁Yugosl	-12492
▁abattu	-12493
▁absorb	-12494
▁adopte	-12495
▁anchov	-12496
▁angels	-12497
▁astrol	-12498
▁biensé	-12499
▁îl	-12500
Okin	-12501
Stop	-12502
hung	-12503
ékin	-12504
icône	-12505
imals	-12506
kerch	-12507
kinaw	-12508
unior	-12509
uphol	-12510
▁Fasc	-12511
▁July	-12512
▁Kids	-12513
▁Prep	-12514
▁Swed	-12515
▁dyed	-12516
▁fasc	-12517
▁porc	-12518
▁émeu	-12519
appela	-12520
ascens	-12521
ournir	-12522
uggled	-12523
ulgent	-12524
▁Flags	-12525
▁Flûte	-12526
▁Glory	-12527
▁Navig	-12528
▁Pisse	-12529
▁Pékin	-12530
▁Ravie	-12531
▁aigre	-12532
▁blâme	-12533
▁flags	-12534
▁goûte	-12535
▁haies	-12536
▁metho	-12537
▁swung	-12538
▁waved	-12539
Okinawa	-12540
achèver	-12541
aigning	-12542
atrième	-12543
ctueuse	-12544
emmener	-12545
essaies	-12546
outhern	-12547
repassé	-12548
semaine	-12549
▁Junior	-12550
▁Okinaw	-12551
▁Sweden	-12552
▁Uriner	-12553
▁berges	-12554
▁binary	-12555
▁binocl	-12556
▁boiled	-12557
▁bombes	-12558
▁bondis	-12559
▁bowler	-12560
▁braces	-12561
▁brandy	-12562
▁brevet	-12563
▁brosse	-12564
▁bégaie	-12565
▁béguin	-12566
▁cancel	-12567
▁censés	-12568
▁choqué	-12569
▁chorus	-12570
▁cligné	-12571
▁coddle	-12572
▁cotton	-12573
▁cruise	-12574
▁cymbal	-12575
▁câlins	-12576
▁delete	-12577
▁dopage	-12578
▁doping	-12579
▁dwarfs	-12580
▁dégrad	-12581
▁désobé	-12582
▁echoed	-12583
▁enlacé	-12584
▁enragé	-12585
▁essuya	-12586
▁essuyé	-12587
▁exotic	-12588
▁farfou	-12589
▁fiança	-12590
▁fleuve	-12591
▁fossil	-12592
▁friand	-12593
▁gagnes	-12594
▁galaxy	-12595
▁gamble	-12596
▁gender	-12597
▁gerioc	-12598
▁germes	-12599
This	-12600
âlit	-12601
ajout	-12602
andji	-12603
hémis	-12604
îneur	-12605
▁oboe	-12606
mandji	-12607
▁pâlit	-12608
▁stagi	-12609
ajoutai	-12610
hémisph	-12611
▁atténu	-12612
▁gigant	-12613
▁gigota	-12614
▁glisse	-12615
▁grondé	-12616
▁géront	-12617
▁hedges	-12618
▁hongro	-12619
▁hooked	-12620
▁hugged	-12621
▁hydrog	-12622
▁hâtées	-12623
▁implac	-12624
▁ineffe	-12625
▁inexpl	-12626
▁inmate	-12627
▁jaunes	-12628
▁kabyle	-12629
▁karaok	-12630
▁koalas	-12631
▁labeur	-12632
▁ladder	-12633
▁lampad	-12634
▁lampes	-12635
▁length	-12636
▁luxury	-12637
▁lèvent	-12638
▁maigri	-12639
▁manusc	-12640
▁masque	-12641
▁medium	-12642
▁miroir	-12643
▁moqués	-12644
▁mètres	-12645
▁méthod	-12646
▁obscur	-12647
▁obtenu	-12648
▁ombrag	-12649
▁opérer	-12650
▁orphan	-12651
▁orteil	-12652
▁oxygen	-12653
▁paraît	-12654
▁pedals	-12655
▁pillow	-12656
▁piscin	-12657
▁piégés	-12658
▁placed	-12659
▁pomper	-12660
▁poupée	-12661
▁powder	-12662
▁predet	-12663
▁procéd	-12664
▁pulses	-12665
▁rabbit	-12666
▁racket	-12667
▁random	-12668
▁rassas	-12669
▁reduce	-12670
▁rejeté	-12671
▁relied	-12672
▁remués	-12673
▁rondes	-12674
▁rousse	-12675
▁réconf	-12676
▁rénové	-12677
▁réseau	-12678
▁senior	-12679
▁shaved	-12680
▁shouts	-12681
▁sliced	-12682
▁smokes	-12683
▁sticky	-12684
▁subsid	-12685
▁sushis	-12686
▁swarms	-12687
▁tanned	-12688
▁tastes	-12689
▁tissue	-12690
▁tortue	-12691
▁unifor	-12692
▁unreal	-12693
▁valley	-12694
▁vanity	-12695
▁virtue	-12696
▁wallet	-12697
▁wolves	-12698
▁zombis	-12699
arewell	-12700
gineers	-12701
orienté	-12702
▁Grandp	-12703
▁Nouvel	-12704
▁blonds	-12705
▁inclut	-12706
▁knocks	-12707
▁mouths	-12708
▁multip	-12709
▁peanut	-12710
▁poetry	-12711
▁ravies	-12712
▁réglée	-12713
▁saveur	-12714
▁towels	-12715
▁trahis	-12716
▁vainqu	-12717
▁volcan	-12718
▁whispe	-12719
▁wildly	-12720
▁échoua	-12721
▁échoue	-12722
▁épeler	-12723
▁éteint	-12724
▁évanou	-12725
Columbus	-12726
Remember	-12727
abeilles	-12728
accorder	-12729
acronyme	-12730
activité	-12731
ankshaft	-12732
annoncer	-12733
antillon	-12734
athedral	-12735
attering	-12736
chissant	-12737
ciements	-12738
cription	-12739
effrayer	-12740
encontre	-12741
enfuirai	-12742
essayais	-12743
estinian	-12744
exécuter	-12745
historic	-12746
héritage	-12747
iculeuse	-12748
incendie	-12749
informer	-12750
insulter	-12751
insultes	-12752
issement	-12753
istening	-12754
kerchief	-12755
lantique	-12756
motional	-12757
motionne	-12758
redulous	-12759
relevant	-12760
riangles	-12761
rouveras	-12762
together	-12763
upholste	-12764
urmandji	-12765
écrivain	-12766
étanique	-12767
étouffer	-12768
▁Accorde	-12769
▁Adopter	-12770
▁Animals	-12771
▁Appuyez	-12772
▁Aramaic	-12773
▁Assoyez	-12774
▁Babylon	-12775
▁Bastard	-12776
▁Couvrez	-12777
▁Essuyez	-12778
▁Fascism	-12779
▁Fournir	-12780
▁Freedom	-12781
▁Grandch	-12782
▁Grandpa	-12783
▁Hackers	-12784
▁Heroing	-12785
▁Ignorez	-12786
▁Insects	-12787
▁Irlande	-12788
▁Johanne	-12789
▁Jongler	-12790
▁MacBook	-12791
▁Macbook	-12792
▁Mercury	-12793
▁Mothers	-12794
▁Pacific	-12795
▁Passons	-12796
▁Pleased	-12797
▁Prepare	-12798
▁Remplis	-12799
▁Milk	-12800
▁rugu	-12801
ograph	-12802
pample	-12803
uistic	-12804
uétude	-12805
▁Aidez	-12806
▁Burma	-12807
▁Capit	-12808
▁Désol	-12809
▁Human	-12810
▁Magie	-12811
▁fîmes	-12812
▁kilom	-12813
▁levai	-12814
▁louée	-12815
▁oddly	-12816
▁rugby	-12817
▁Birman	-12818
▁Capitu	-12819
▁Cheese	-12820
▁Envoie	-12821
▁Fermez	-12822
▁Humans	-12823
▁Julian	-12824
▁Julien	-12825
▁Restez	-12826
▁afflig	-12827
▁bambou	-12828
▁fabric	-12829
▁fumeur	-12830
▁hidden	-12831
▁lifesp	-12832
▁pilote	-12833
▁sample	-12834
▁shirts	-12835
▁varice	-12836
améliore	-12837
atograph	-12838
ertinent	-12839
gettable	-12840
ographer	-12841
organise	-12842
struites	-12843
▁Capitul	-12844
▁Clearly	-12845
▁Compile	-12846
▁Congrès	-12847
▁Désolée	-12848
▁Exprime	-12849
▁October	-12850
▁Restons	-12851
▁Revenez	-12852
▁Selling	-12853
▁Seventy	-12854
▁Someday	-12855
▁Squirre	-12856
▁Suckers	-12857
▁Tetanus	-12858
▁Touchez	-12859
▁Ukraine	-12860
▁Verrais	-12861
▁abeille	-12862
▁absorbs	-12863
▁abstain	-12864
▁accordé	-12865
▁adapted	-12866
▁affaibl	-12867
▁afflict	-12868
▁afflige	-12869
▁affrété	-12870
▁aillent	-12871
▁altruis	-12872
▁annonce	-12873
▁anthrop	-12874
▁anxiety	-12875
▁apeurés	-12876
▁aspects	-12877
▁assieds	-12878
▁assumed	-12879
▁athlète	-12880
▁attempt	-12881
▁balcony	-12882
▁banners	-12883
▁bastard	-12884
▁battait	-12885
▁battent	-12886
▁battues	-12887
▁beekeep	-12888
▁biology	-12889
▁biscuit	-12890
▁blaguer	-12891
▁blagues	-12892
▁bluffer	-12893
▁bridges	-12894
▁briefly	-12895
▁bronzée	-12896
▁buttons	-12897
▁cabbage	-12898
▁cadavre	-12899
▁urb	-12900
alaxy	-12901
attén	-12902
haled	-12903
happy	-12904
hende	-12905
offre	-12906
ortug	-12907
rafty	-12908
ténué	-12909
térie	-12910
uchot	-12911
untly	-12912
▁Janu	-12913
▁Succ	-12914
▁Supp	-12915
▁dîne	-12916
appuie	-12917
oigner	-12918
omètre	-12919
optère	-12920
ousser	-12921
oyauté	-12922
ragons	-12923
rairie	-12924
roleum	-12925
ustrie	-12926
écrive	-12927
▁Flute	-12928
▁Moder	-12929
▁Suède	-12930
▁Vérif	-12931
▁arôme	-12932
▁enrag	-12933
▁fûtes	-12934
▁rares	-12935
▁urban	-12936
actérie	-12937
anchant	-12938
antagon	-12939
atténue	-12940
chieved	-12941
etourne	-12942
rupting	-12943
réhende	-12944
servant	-12945
▁Galaxy	-12946
▁amende	-12947
▁arrose	-12948
▁atomic	-12949
▁branch	-12950
▁bruiss	-12951
▁chaîne	-12952
▁crafty	-12953
▁cruels	-12954
▁franch	-12955
▁patrie	-12956
▁portug	-12957
▁prayed	-12958
▁redund	-12959
▁réfuta	-12960
chievous	-12961
omplirai	-12962
uchotant	-12963
éloigner	-12964
▁Antares	-12965
▁Dragons	-12966
▁January	-12967
▁Marchez	-12968
▁Rencont	-12969
▁Success	-12970
▁Vérifie	-12971
▁apporté	-12972
▁approuv	-12973
▁bluntly	-12974
▁cameras	-12975
▁castles	-12976
▁castors	-12977
▁cessent	-12978
▁channel	-12979
▁citizen	-12980
▁citoyen	-12981
▁colosse	-12982
▁condoms	-12983
▁connect	-12984
▁couture	-12985
▁crédits	-12986
▁cymbale	-12987
▁deceive	-12988
▁declare	-12989
▁diminue	-12990
▁discrep	-12991
▁display	-12992
▁divisés	-12993
▁dizaine	-12994
▁douanes	-12995
▁dragged	-12996
▁dynamic	-12997
▁déchira	-12998
▁déchire	-12999
rhée	-13000
▁12,	-13001
ammit	-13002
aucun	-13003
couez	-13004
fruit	-13005
▁Eeny	-13006
▁cauc	-13007
▁safr	-13008
iocres	-13009
rhumer	-13010
▁motto	-13011
▁ruban	-13012
▁shift	-13013
▁shiny	-13014
▁weeds	-13015
ddammit	-13016
▁caucas	-13017
▁ramené	-13018
▁safran	-13019
▁éclaté	-13020
apefruit	-13021
emploies	-13022
enrhumer	-13023
offenser	-13024
▁Secouez	-13025
▁climbed	-13026
▁composa	-13027
▁décollé	-13028
▁décorée	-13029
▁délicat	-13030
▁démarré	-13031
▁déprimé	-13032
▁déroule	-13033
▁désirée	-13034
▁détecté	-13035
▁détesté	-13036
▁détoner	-13037
▁dévalis	-13038
▁dévasté	-13039
▁earring	-13040
▁elevent	-13041
▁emerges	-13042
▁emotion	-13043
▁enlevée	-13044
▁enragée	-13045
▁entiché	-13046
▁envahit	-13047
▁erratic	-13048
▁escorté	-13049
▁esprits	-13050
▁estomac	-13051
▁exagéré	-13052
▁exigent	-13053
▁exténué	-13054
▁falsely	-13055
▁fashion	-13056
▁fifteen	-13057
▁fluctue	-13058
▁freedom	-13059
▁freezes	-13060
▁fêtarde	-13061
▁gelâmes	-13062
▁gluants	-13063
▁gouttes	-13064
▁guéries	-13065
▁harmful	-13066
▁honking	-13067
▁ignores	-13068
▁imitate	-13069
▁impuiss	-13070
▁inadmis	-13071
▁inhaled	-13072
▁inquiet	-13073
▁inspira	-13074
▁intimid	-13075
▁jalouse	-13076
▁jongler	-13077
▁karaoke	-13078
▁karaoké	-13079
▁kilomet	-13080
▁leaders	-13081
▁liberty	-13082
▁licking	-13083
▁loterie	-13084
▁lottery	-13085
▁lovable	-13086
▁loyauté	-13087
▁légende	-13088
▁mahjong	-13089
▁maigres	-13090
▁mettrai	-13091
▁mobiles	-13092
▁modeste	-13093
▁modique	-13094
▁monoton	-13095
▁monster	-13096
▁mordent	-13097
▁mosquit	-13098
▁moulant	-13099
▁amaze	-13100
▁aînée	-13101
▁cacha	-13102
▁filet	-13103
▁romps	-13104
eorolog	-13105
hésitez	-13106
▁Heaven	-13107
▁Oxford	-13108
▁Russia	-13109
▁amazed	-13110
▁aperce	-13111
▁argued	-13112
▁barked	-13113
▁brainw	-13114
▁caches	-13115
▁circus	-13116
▁europé	-13117
▁guilde	-13118
▁pleuré	-13119
▁pulled	-13120
▁révélé	-13121
▁weaker	-13122
▁weirdo	-13123
envelopp	-13124
élection	-13125
▁annulés	-13126
▁apercev	-13127
▁beliefs	-13128
▁cassent	-13129
▁cinemas	-13130
▁despair	-13131
▁despite	-13132
▁financi	-13133
▁fingern	-13134
▁mailing	-13135
▁méchant	-13136
▁mélange	-13137
▁mérites	-13138
▁neglect	-13139
▁neuroch	-13140
▁nuageux	-13141
▁nullard	-13142
▁obscure	-13143
▁omitted	-13144
▁opposée	-13145
▁origine	-13146
▁orteils	-13147
▁ouvrage	-13148
▁oversle	-13149
▁overste	-13150
▁oxygène	-13151
▁packing	-13152
▁panneau	-13153
▁pareils	-13154
▁parodié	-13155
▁peignit	-13156
▁penalty	-13157
▁pendule	-13158
▁perturb	-13159
▁platine	-13160
▁plongée	-13161
▁pottery	-13162
▁poésies	-13163
▁predile	-13164
▁priorit	-13165
▁procure	-13166
▁prouvée	-13167
▁pénalty	-13168
▁ralenti	-13169
▁rallier	-13170
▁rallong	-13171
▁randonn	-13172
▁rapidly	-13173
▁rassure	-13174
▁rebelle	-13175
▁reflète	-13176
▁regaled	-13177
▁rejetez	-13178
▁rejetée	-13179
▁release	-13180
▁relâché	-13181
▁remarks	-13182
▁remplis	-13183
▁renvoya	-13184
▁renvoyé	-13185
▁retires	-13186
▁rewards	-13187
▁robinet	-13188
▁rurales	-13189
▁réparée	-13190
▁réservé	-13191
▁sacrées	-13192
▁sautant	-13193
▁sexuels	-13194
▁spectac	-13195
▁spirits	-13196
▁spiritu	-13197
▁spoiled	-13198
▁stimulé	-13199
▁Ants	-13200
▁Musl	-13201
▁meut	-13202
avocat	-13203
consum	-13204
étoile	-13205
▁Antar	-13206
▁Benef	-13207
▁Finis	-13208
▁Furry	-13209
▁Ready	-13210
▁Vivre	-13211
▁armed	-13212
▁dotes	-13213
▁dénud	-13214
▁norvé	-13215
▁title	-13216
duiront	-13217
ificial	-13218
ivrance	-13219
liament	-13220
looking	-13221
racting	-13222
▁Center	-13223
▁Finish	-13224
▁Indust	-13225
▁Middle	-13226
▁Museum	-13227
▁Muslim	-13228
▁apathy	-13229
▁drying	-13230
▁dénoué	-13231
▁ensure	-13232
▁foward	-13233
▁fumais	-13234
▁geared	-13235
▁lemons	-13236
▁norvég	-13237
▁pleura	-13238
▁prying	-13239
▁rowing	-13240
▁réduit	-13241
▁waving	-13242
aisissez	-13243
antissez	-13244
arrivais	-13245
atically	-13246
imulated	-13247
tificial	-13248
▁Antarès	-13249
▁Muslims	-13250
▁Sachant	-13251
▁armoire	-13252
▁awfully	-13253
▁begging	-13254
▁bystand	-13255
▁circonf	-13256
▁dénudés	-13257
▁excepté	-13258
▁feeding	-13259
▁lunatic	-13260
▁outlook	-13261
▁poumons	-13262
▁rédiger	-13263
▁sucrées	-13264
▁sweethe	-13265
▁tanning	-13266
▁tension	-13267
▁tetanus	-13268
▁thermom	-13269
▁tighten	-13270
▁tongues	-13271
▁tossing	-13272
▁tournez	-13273
▁toxique	-13274
▁trahira	-13275
▁tremblé	-13276
▁trombes	-13277
▁trompez	-13278
▁tyranny	-13279
▁témoins	-13280
▁unclasp	-13281
▁unhappy	-13282
▁unpopul	-13283
▁useless	-13284
▁ushered	-13285
▁variole	-13286
▁various	-13287
▁victims	-13288
▁vitamin	-13289
▁waistco	-13290
▁whipped	-13291
▁wounded	-13292
▁zombies	-13293
▁Étudies	-13294
▁écarter	-13295
▁écharpe	-13296
▁écoutez	-13297
▁éliront	-13298
▁éloigne	-13299
kyô	-13300
ébu	-13301
ômé	-13302
corn	-13303
desm	-13304
goût	-13305
gués	-13306
infl	-13307
mmit	-13308
ôkyô	-13309
agoût	-13310
agrin	-13311
guese	-13312
ornés	-13313
robés	-13314
rétin	-13315
uffle	-13316
ébull	-13317
▁Budd	-13318
▁Hold	-13319
▁Publ	-13320
▁Urin	-13321
▁budd	-13322
▁cédé	-13323
▁klax	-13324
▁raqu	-13325
▁ryth	-13326
▁sinc	-13327
▁émot	-13328
icerie	-13329
opcorn	-13330
uffici	-13331
▁Buddh	-13332
▁Seoul	-13333
▁Tôkyô	-13334
▁bluff	-13335
▁cyber	-13336
▁céléb	-13337
▁juger	-13338
▁lodes	-13339
▁mêler	-13340
▁mêlez	-13341
▁nommé	-13342
▁sunfl	-13343
▁sworn	-13344
desmaid	-13345
flowers	-13346
terbrot	-13347
▁Crétin	-13348
▁Public	-13349
▁juggle	-13350
▁ligués	-13351
▁prémat	-13352
▁ragoût	-13353
▁rythme	-13354
▁summit	-13355
▁tossed	-13356
infliger	-13357
épicerie	-13358
▁ajouter	-13359
▁bluffed	-13360
▁buddies	-13361
▁chagrin	-13362
▁diplômé	-13363
▁enrobés	-13364
▁klaxons	-13365
▁popcorn	-13366
▁possédé	-13367
▁shuffle	-13368
▁utilise	-13369
▁écornés	-13370
▁énergét	-13371
▁épelles	-13372
▁étroite	-13373
Argentine	-13374
aharienne	-13375
appréciai	-13376
araîtrait	-13377
artiality	-13378
artialité	-13379
ascenseur	-13380
autoriser	-13381
aîtraient	-13382
brouilles	-13383
consuming	-13384
credulous	-13385
diversité	-13386
encieuses	-13387
entendent	-13388
entendons	-13389
enverrais	-13390
eroplanes	-13391
exception	-13392
habituera	-13393
honnêteté	-13394
identifié	-13395
inclusion	-13396
industrie	-13397
ledgement	-13398
ndangered	-13399
Does	-13400
▁Emm	-13401
Should	-13402
▁gênés	-13403
▁stung	-13404
▁Emmène	-13405
▁blindé	-13406
▁rêveur	-13407
▁warmth	-13408
▁écrasa	-13409
▁breathe	-13410
▁destiny	-13411
▁enrager	-13412
▁methods	-13413
▁quantum	-13414
▁rêveurs	-13415
▁rêveuse	-13416
▁soudain	-13417
▁stopper	-13418
▁surfing	-13419
▁suspend	-13420
bsolument	-13421
oignirent	-13422
ompréhens	-13423
orénavant	-13424
pportable	-13425
restimate	-13426
richissez	-13427
satisfied	-13428
tlantique	-13429
tétanique	-13430
utterbrot	-13431
ventionne	-13432
versaries	-13433
élèvement	-13434
érifierai	-13435
étudierai	-13436
îchissant	-13437
▁Adressez	-13438
▁Albigens	-13439
▁Algerian	-13440
▁Approche	-13441
▁Arrivent	-13442
▁Atlantic	-13443
▁Attendez	-13444
▁Babylone	-13445
▁Becoming	-13446
▁Birmanie	-13447
▁Bouchons	-13448
▁Cambodia	-13449
▁Cathares	-13450
▁Creating	-13451
▁Democrat	-13452
▁Exprimez	-13453
▁Feminine	-13454
▁Histoire	-13455
▁Inspired	-13456
▁Juggling	-13457
▁Medicine	-13458
▁Miracule	-13459
▁Mongolie	-13460
▁Naviguer	-13461
▁Nouilles	-13462
▁Province	-13463
▁Préférez	-13464
▁Retourne	-13465
▁Revenues	-13466
▁Salzburg	-13467
▁Smallpox	-13468
▁Sunlight	-13469
▁Supprime	-13470
▁Teaching	-13471
▁Utilisez	-13472
▁Vivement	-13473
▁YouTuber	-13474
▁abaisser	-13475
▁abstiens	-13476
▁accusing	-13477
▁achieved	-13478
▁acrobate	-13479
▁actuarie	-13480
▁adaptées	-13481
▁adjudged	-13482
▁adoptait	-13483
▁affaibli	-13484
▁affecter	-13485
▁affligés	-13486
▁agressif	-13487
▁agressée	-13488
▁agréable	-13489
▁aiguiser	-13490
▁annoying	-13491
▁appeared	-13492
▁aspirins	-13493
▁attained	-13494
▁attardée	-13495
▁awaiting	-13496
▁backpack	-13497
▁barreaux	-13498
▁barrière	-13499
fèvre	-13500
▁anti	-13501
▁anxi	-13502
▁earn	-13503
finite	-13504
frique	-13505
▁bombs	-13506
▁celeb	-13507
▁earli	-13508
▁earns	-13509
▁frime	-13510
▁grime	-13511
▁lourd	-13512
▁lèvre	-13513
▁melts	-13514
▁octob	-13515
▁unsal	-13516
Afrique	-13517
acteria	-13518
annuler	-13519
anément	-13520
exprime	-13521
oixante	-13522
étendis	-13523
▁Repose	-13524
▁Sounds	-13525
▁averse	-13526
▁bounds	-13527
▁civils	-13528
▁dishcl	-13529
▁dorlot	-13530
▁dorées	-13531
▁larges	-13532
▁lavais	-13533
▁lièvre	-13534
▁melted	-13535
▁noires	-13536
▁pagoda	-13537
▁paiera	-13538
▁pendul	-13539
▁pounds	-13540
autorité	-13541
rendered	-13542
▁Chicken	-13543
▁Langues	-13544
▁anticip	-13545
▁anxiété	-13546
▁empêche	-13547
▁goldfin	-13548
▁largest	-13549
▁lavable	-13550
▁melting	-13551
▁octobre	-13552
▁orfèvre	-13553
▁panique	-13554
▁powered	-13555
▁urinate	-13556
▁épuisée	-13557
éparables	-13558
▁Marchons	-13559
▁Soixante	-13560
▁antienne	-13561
▁bacteria	-13562
▁bassiste	-13563
▁batterie	-13564
▁benefits	-13565
▁bestiole	-13566
▁biologie	-13567
▁boissons	-13568
▁bouillir	-13569
▁boussole	-13570
▁brunette	-13571
▁bûcheron	-13572
▁capacity	-13573
▁carottes	-13574
▁celebrit	-13575
▁cellular	-13576
▁centrale	-13577
▁cervelle	-13578
▁charmant	-13579
▁choosers	-13580
▁châteaux	-13581
▁circuses	-13582
▁cirrhose	-13583
▁cleavage	-13584
▁climatic	-13585
▁clochait	-13586
▁collègue	-13587
▁colorant	-13588
▁compares	-13589
▁conduite	-13590
▁conflict	-13591
▁conflits	-13592
▁consacra	-13593
▁consacre	-13594
▁consacré	-13595
▁consumed	-13596
▁contesté	-13597
▁converge	-13598
▁cotation	-13599
bbon	-13600
doué	-13601
ptem	-13602
unno	-13603
▁Mec	-13604
edged	-13605
enged	-13606
envir	-13607
excit	-13608
excus	-13609
excès	-13610
gligé	-13611
itifs	-13612
laced	-13613
lamme	-13614
loyal	-13615
ppery	-13616
égiée	-13617
▁Very	-13618
▁coop	-13619
▁eeny	-13620
alarme	-13621
alliée	-13622
appels	-13623
dictor	-13624
envole	-13625
ernity	-13626
excusa	-13627
iciels	-13628
igérer	-13629
ileged	-13630
impuls	-13631
olores	-13632
otaped	-13633
strich	-13634
▁Count	-13635
▁Cover	-13636
▁Islam	-13637
▁Jouer	-13638
▁avoué	-13639
▁dunno	-13640
▁islam	-13641
▁loyal	-13642
▁neigé	-13643
▁peels	-13644
▁ruiné	-13645
▁étern	-13646
colores	-13647
hétique	-13648
ilégiée	-13649
iscover	-13650
ouerais	-13651
ptembre	-13652
richien	-13653
▁August	-13654
▁actifs	-13655
▁adores	-13656
▁alitée	-13657
▁combat	-13658
▁détenu	-13659
▁frozen	-13660
▁impuls	-13661
▁ribbon	-13662
▁skills	-13663
alphabet	-13664
enflamme	-13665
enverrai	-13666
ernation	-13667
excitait	-13668
omobiles	-13669
royables	-13670
▁Clothes	-13671
▁Corrige	-13672
▁avenged	-13673
▁binaire	-13674
▁digérer	-13675
▁déloyal	-13676
▁déprime	-13677
▁loyalty	-13678
▁négligé	-13679
▁ostrich	-13680
▁poirier	-13681
▁predict	-13682
▁regorge	-13683
▁surdoué	-13684
aledictor	-13685
impulsion	-13686
▁Congress	-13687
▁Counting	-13688
▁convergé	-13689
▁couleurs	-13690
▁courriel	-13691
▁courrier	-13692
▁coutumes	-13693
▁craindre	-13694
▁creative	-13695
▁criminel	-13696
▁croirais	-13697
▁croyante	-13698
▁cultiver	-13699
orns	-13700
ambit	-13701
rocha	-13702
▁juré	-13703
▁Taois	-13704
▁ducks	-13705
▁lacks	-13706
▁necks	-13707
▁sécha	-13708
▁texto	-13709
érences	-13710
▁Taoism	-13711
▁acorns	-13712
▁formel	-13713
▁strike	-13714
ambition	-13715
approcha	-13716
▁Disease	-13717
▁Science	-13718
▁comparé	-13719
▁decline	-13720
▁exercée	-13721
▁juguler	-13722
▁monstre	-13723
▁refusée	-13724
▁tiennes	-13725
▁unambit	-13726
▁vegetar	-13727
▁viennes	-13728
ervatives	-13729
▁absurdit	-13730
▁bursting	-13731
▁conduise	-13732
▁considér	-13733
▁culturel	-13734
▁customer	-13735
▁cybersec	-13736
▁célébrit	-13737
▁damaging	-13738
▁deceived	-13739
▁deceiver	-13740
▁denounce	-13741
▁deranged	-13742
▁deserted	-13743
▁designed	-13744
▁detector	-13745
▁diseases	-13746
▁dishonor	-13747
▁disloyal	-13748
▁disorder	-13749
▁dissuade	-13750
▁distancé	-13751
▁dogmatis	-13752
▁dortoirs	-13753
▁douzaine	-13754
▁douzième	-13755
▁dripping	-13756
▁dropping	-13757
▁durement	-13758
▁débattre	-13759
▁décevoir	-13760
▁découvre	-13761
▁dégoûtes	-13762
▁démarche	-13763
▁désirait	-13764
▁désorgan	-13765
▁détourna	-13766
▁dévastée	-13767
▁développ	-13768
▁earrings	-13769
▁employee	-13770
▁envisage	-13771
▁envoyait	-13772
▁equality	-13773
▁espiègle	-13774
▁estimate	-13775
▁eternity	-13776
▁européen	-13777
▁excitées	-13778
▁exorcist	-13779
▁exotique	-13780
▁expelled	-13781
▁exploité	-13782
▁exécuter	-13783
▁fabulous	-13784
▁fainéant	-13785
▁familial	-13786
▁families	-13787
▁farewell	-13788
▁fascisme	-13789
▁fermerai	-13790
▁flottent	-13791
▁fossiles	-13792
▁franchit	-13793
▁freezing	-13794
▁frustrée	-13795
▁fâcheuse	-13796
▁gigantic	-13797
▁glissant	-13798
▁goldfish	-13799
▁pyj	-13800
oquez	-13801
spère	-13802
ximum	-13803
éaste	-13804
▁Prie	-13805
▁damn	-13806
▁mosa	-13807
excell	-13808
heline	-13809
opened	-13810
unicip	-13811
Église	-13812
énerve	-13813
▁Contr	-13814
▁Croes	-13815
▁Prove	-13816
▁athée	-13817
▁bordé	-13818
▁bûche	-13819
▁greas	-13820
▁règle	-13821
▁vidée	-13822
obtenir	-13823
ordonna	-13824
pheline	-13825
▁Amenez	-13826
▁Button	-13827
▁Contin	-13828
▁Lemons	-13829
▁Seeing	-13830
▁adults	-13831
▁agency	-13832
▁ancien	-13833
▁bonbon	-13834
▁candid	-13835
▁define	-13836
▁déposé	-13837
▁fesses	-13838
▁flatly	-13839
▁freine	-13840
▁gratte	-13841
▁greasy	-13842
▁magnet	-13843
▁mordra	-13844
▁pyjama	-13845
▁tuning	-13846
▁église	-13847
▁évoque	-13848
irurgien	-13849
▁Britain	-13850
▁Britann	-13851
▁Continu	-13852
▁Croesus	-13853
▁Project	-13854
▁advenir	-13855
▁automne	-13856
▁bloquez	-13857
▁boucles	-13858
▁cancell	-13859
▁coûteux	-13860
▁dissout	-13861
▁equally	-13862
▁freight	-13863
▁gratter	-13864
▁hideout	-13865
▁insults	-13866
▁limites	-13867
▁maximum	-13868
▁municip	-13869
▁obtenir	-13870
▁pulling	-13871
▁rolling	-13872
arriveras	-13873
orpheline	-13874
▁Contrôle	-13875
▁Italians	-13876
▁candidat	-13877
▁cinéaste	-13878
▁exposing	-13879
▁fourteen	-13880
▁frequent	-13881
▁googling	-13882
▁gorgeous	-13883
▁graduate	-13884
▁grondées	-13885
▁habillée	-13886
▁habituée	-13887
▁hangover	-13888
▁heartbur	-13889
▁homeless	-13890
▁hongrois	-13891
▁horrifié	-13892
▁hundreds	-13893
▁hydrogen	-13894
▁idealise	-13895
▁ignition	-13896
▁immortel	-13897
▁implique	-13898
▁incompét	-13899
mbla	-13900
abbed	-13901
licts	-13902
rylic	-13903
▁Joli	-13904
▁Rabb	-13905
▁Snit	-13906
▁Teen	-13907
▁gèle	-13908
▁loaf	-13909
▁tofu	-13910
aulted	-13911
embrou	-13912
eneath	-13913
ingolé	-13914
joutez	-13915
selait	-13916
éfléch	-13917
▁Teach	-13918
▁glacé	-13919
▁placé	-13920
embêter	-13921
ervatif	-13922
levator	-13923
▁checkp	-13924
▁desolé	-13925
▁révèle	-13926
▁subset	-13927
oléances	-13928
éfléchir	-13929
▁Ajoutez	-13930
▁Cherche	-13931
▁Rabbits	-13932
▁account	-13933
▁acrylic	-13934
▁beneath	-13935
▁charger	-13936
▁cinémas	-13937
▁divorcé	-13938
▁grabbed	-13939
▁heights	-13940
▁marchés	-13941
▁privacy	-13942
▁soufflé	-13943
uisselait	-13944
▁Snitches	-13945
▁avoiding	-13946
▁catalogs	-13947
▁chargera	-13948
▁contrefa	-13949
▁elevator	-13950
▁entendue	-13951
▁gagnerez	-13952
▁humanity	-13953
▁industry	-13954
▁infected	-13955
▁infectée	-13956
▁infinite	-13957
▁initiaux	-13958
▁insanely	-13959
▁insectes	-13960
▁insecure	-13961
▁inspired	-13962
▁insuffer	-13963
▁internes	-13964
▁intuitif	-13965
▁judgment	-13966
▁knapping	-13967
▁lavettes	-13968
▁lesquels	-13969
▁logement	-13970
▁louèrent	-13971
▁lèverais	-13972
▁machines	-13973
▁magasins	-13974
▁magician	-13975
▁maintenu	-13976
▁maniaque	-13977
▁manquais	-13978
▁massacré	-13979
▁maîtrisé	-13980
▁mechanic	-13981
▁meditate	-13982
▁menottes	-13983
▁menteuse	-13984
▁merciful	-13985
▁mercredi	-13986
▁military	-13987
▁milliard	-13988
▁minority	-13989
▁minuscul	-13990
▁modernis	-13991
▁mondiaux	-13992
▁monotone	-13993
▁monsieur	-13994
▁mosquito	-13995
▁murdered	-13996
▁murmured	-13997
▁médicale	-13998
▁médiocre	-13999
influ	-14000
ongea	-14001
▁Grab	-14002
▁issu	-14003
▁sexy	-14004
adoles	-14005
arling	-14006
rapped	-14007
riling	-14008
usters	-14009
utters	-14010
▁Cirez	-14011
▁Corée	-14012
▁Euroz	-14013
▁furth	-14014
▁holes	-14015
▁hélic	-14016
▁optic	-14017
▁purée	-14018
▁ronge	-14019
▁sexes	-14020
▁sexue	-14021
attirez	-14022
inkling	-14023
masters	-14024
onomise	-14025
selling	-14026
tapping	-14027
wrapped	-14028
▁Amusez	-14029
▁amusée	-14030
▁avisée	-14031
▁bourse	-14032
▁crampe	-14033
▁dragon	-14034
▁enduré	-14035
▁heroes	-14036
▁issued	-14037
▁myster	-14038
▁ouvrez	-14039
▁pardon	-14040
▁ramène	-14041
▁sauvée	-14042
▁sauvés	-14043
▁soupir	-14044
▁sponge	-14045
▁sujets	-14046
▁tendin	-14047
oraliser	-14048
rilingue	-14049
▁Letters	-14050
▁Stories	-14051
▁alright	-14052
▁apparue	-14053
▁chapped	-14054
▁crucial	-14055
▁darling	-14056
▁enemies	-14057
▁génoise	-14058
▁honneur	-14059
▁mystéri	-14060
▁peintre	-14061
▁plongea	-14062
▁provide	-14063
▁pénible	-14064
▁ramures	-14065
▁retirez	-14066
▁revivre	-14067
▁régimes	-14068
▁snapped	-14069
▁starved	-14070
enestrate	-14071
influence	-14072
économise	-14073
▁Eurozone	-14074
▁Watching	-14075
▁apparues	-14076
▁exagérée	-14077
▁furthest	-14078
▁growling	-14079
▁infidèle	-14080
▁jetables	-14081
▁mystical	-14082
▁mystique	-14083
▁méritent	-14084
▁méthodes	-14085
▁naissent	-14086
▁naviguer	-14087
▁negative	-14088
▁nuisance	-14089
▁nuisible	-14090
▁obscured	-14091
▁official	-14092
▁officiel	-14093
▁ombragés	-14094
▁operator	-14095
▁organisé	-14096
▁outdoors	-14097
▁overhung	-14098
▁pardonne	-14099
asco	-14100
oval	-14101
uals	-14102
warm	-14103
armée	-14104
heurs	-14105
onsdé	-14106
shirt	-14107
tales	-14108
échés	-14109
▁Ages	-14110
▁Plan	-14111
▁aida	-14112
▁lycé	-14113
▁sida	-14114
▁waff	-14115
arters	-14116
iduals	-14117
kewarm	-14118
pecked	-14119
search	-14120
tecter	-14121
échant	-14122
▁bougé	-14123
▁renov	-14124
▁shape	-14125
▁views	-14126
rogatif	-14127
▁Manges	-14128
▁Plutôt	-14129
▁annual	-14130
▁anyway	-14131
▁awaits	-14132
▁donkey	-14133
▁ducked	-14134
▁fiasco	-14135
▁fonsdé	-14136
▁gratif	-14137
▁lacked	-14138
▁lycéen	-14139
▁pièges	-14140
▁péchés	-14141
▁tucked	-14142
▁whales	-14143
▁égales	-14144
employer	-14145
etically	-14146
olktales	-14147
quarters	-14148
étendent	-14149
▁Sundays	-14150
▁abandon	-14151
▁abusing	-14152
▁autoris	-14153
▁highway	-14154
▁removal	-14155
▁reporté	-14156
▁waffles	-14157
▁établie	-14158
arrogatif	-14159
autrefois	-14160
échantill	-14161
▁Scotsman	-14162
▁allergie	-14163
▁arguable	-14164
▁détecter	-14165
▁jeunesse	-14166
▁lukewarm	-14167
▁malheurs	-14168
▁manquera	-14169
▁normales	-14170
▁parodied	-14171
▁particip	-14172
▁partners	-14173
▁parvenue	-14174
▁pendante	-14175
▁penderie	-14176
▁pendulum	-14177
▁pharmacy	-14178
▁photogen	-14179
▁photogén	-14180
▁piscines	-14181
▁plaisirs	-14182
▁planquez	-14183
▁planètes	-14184
▁playmate	-14185
▁pleurera	-14186
▁poisoned	-14187
▁poissons	-14188
▁politely	-14189
▁powerful	-14190
▁prescrit	-14191
▁priority	-14192
▁promotes	-14193
▁propriét	-14194
▁propulsé	-14195
▁prospère	-14196
▁protests	-14197
▁province	-14198
▁provoque	-14199
cuté	-14200
gule	-14201
▁Pee	-14202
orers	-14203
▁bald	-14204
aillot	-14205
rossée	-14206
spagne	-14207
▁creep	-14208
▁creus	-14209
▁crevé	-14210
▁debit	-14211
▁licen	-14212
▁nagea	-14213
▁pools	-14214
▁tools	-14215
Espagne	-14216
aillard	-14217
inquent	-14218
itories	-14219
urantes	-14220
▁Nature	-14221
▁Peeing	-14222
▁basent	-14223
▁brisée	-14224
▁calmly	-14225
▁creepy	-14226
▁extrat	-14227
▁foutus	-14228
▁hanged	-14229
▁landed	-14230
▁liquid	-14231
▁nettoy	-14232
▁ponder	-14233
▁privés	-14234
▁quator	-14235
▁réputé	-14236
▁switch	-14237
▁tranch	-14238
▁Écoute	-14239
ailleurs	-14240
maillard	-14241
occupent	-14242
vêtement	-14243
▁Invitez	-14244
▁Luckily	-14245
▁Peindre	-14246
▁baisers	-14247
▁balance	-14248
▁blushed	-14249
▁creuset	-14250
▁crushed	-14251
▁curator	-14252
▁deliver	-14253
▁donnant	-14254
▁donnons	-14255
▁fouteur	-14256
▁inscrit	-14257
▁jardins	-14258
▁landing	-14259
▁licence	-14260
▁maillot	-14261
▁marquée	-14262
▁offered	-14263
▁percuté	-14264
▁pointes	-14265
▁postule	-14266
▁préféra	-14267
▁rejoint	-14268
▁reprodu	-14269
▁sending	-14270
▁virgule	-14271
▁baldness	-14272
▁brazenly	-14273
▁citrique	-14274
▁donneurs	-14275
▁maintain	-14276
▁noticing	-14277
▁préparée	-14278
▁prévenus	-14279
▁pénétrai	-14280
▁pêcheurs	-14281
▁qualifié	-14282
▁quatorze	-14283
▁quittait	-14284
▁quittées	-14285
▁rajouter	-14286
▁ralentit	-14287
▁raquette	-14288
▁rassasié	-14289
▁ratifier	-14290
▁rattrape	-14291
▁recently	-14292
▁recevons	-14293
▁recevrez	-14294
▁refermer	-14295
▁reflects	-14296
▁refugees	-14297
▁rejoigne	-14298
▁remarqua	-14299
apsu	-14300
ault	-14301
▁Obs	-14302
anoid	-14303
metic	-14304
pérer	-14305
▁nagé	-14306
interd	-14307
interm	-14308
évanou	-14309
▁limon	-14310
▁pipes	-14311
▁rogue	-14312
cidence	-14313
illerie	-14314
isitive	-14315
▁baraka	-14316
▁drogue	-14317
▁ignoré	-14318
▁laughs	-14319
▁région	-14320
▁weaved	-14321
apsuleur	-14322
interméd	-14323
ithmetic	-14324
évanouit	-14325
▁Embrass	-14326
▁Observe	-14327
▁assault	-14328
▁cadeaux	-14329
▁collaps	-14330
▁fullest	-14331
intermédi	-14332
quisitive	-14333
▁Canadien	-14334
▁apprenez	-14335
▁apprécie	-14336
▁coopérer	-14337
▁débutant	-14338
▁ignorait	-14339
▁ignorant	-14340
▁limonade	-14341
▁matières	-14342
▁morality	-14343
▁national	-14344
▁neighing	-14345
▁paranoid	-14346
▁paraplui	-14347
▁pastèque	-14348
▁possibly	-14349
▁prononce	-14350
▁remplacé	-14351
▁renommés	-14352
▁rentrées	-14353
▁renvoyer	-14354
▁replaced	-14355
▁reposant	-14356
▁repoussa	-14357
▁reprocha	-14358
▁reproche	-14359
▁requiers	-14360
▁research	-14361
▁respecte	-14362
▁respectu	-14363
▁resterez	-14364
▁retentit	-14365
▁retirant	-14366
▁retiring	-14367
▁retirées	-14368
▁retraité	-14369
▁richesse	-14370
▁rigolait	-14371
▁ruminent	-14372
▁réconcil	-14373
▁réussite	-14374
▁révélées	-14375
▁saoulard	-14376
▁savaient	-14377
▁scandale	-14378
▁scholast	-14379
▁scolaire	-14380
▁scrubbed	-14381
▁seasoned	-14382
▁sentiras	-14383
▁sentirez	-14384
▁shitting	-14385
▁shouting	-14386
▁shuttled	-14387
▁signific	-14388
▁singular	-14389
▁slightly	-14390
▁somewhat	-14391
▁soucieux	-14392
▁soucoupe	-14393
▁soudaine	-14394
▁souffert	-14395
▁souffrir	-14396
▁soulagée	-14397
▁sourcils	-14398
▁souriait	-14399
roué	-14400
tray	-14401
umph	-14402
aviré	-14403
maged	-14404
monné	-14405
place	-14406
raged	-14407
roads	-14408
roken	-14409
roucé	-14410
▁Jump	-14411
▁Pump	-14412
▁bidd	-14413
broken	-14414
essaye	-14415
etwork	-14416
ogames	-14417
rolman	-14418
verrou	-14419
▁Catch	-14420
▁infin	-14421
▁jules	-14422
▁names	-14423
▁spoil	-14424
▁squid	-14425
▁torse	-14426
▁éclat	-14427
aisonné	-14428
augment	-14429
essayez	-14430
oisonné	-14431
prouves	-14432
▁Attrib	-14433
▁Ralent	-14434
▁Regard	-14435
▁Sommes	-14436
▁Thames	-14437
▁advenu	-14438
▁curren	-14439
▁enroué	-14440
▁expiré	-14441
▁robber	-14442
▁révolu	-14443
▁traged	-14444
habiller	-14445
istanced	-14446
▁ashtray	-14447
▁bidding	-14448
▁boiling	-14449
▁chaviré	-14450
▁currenc	-14451
▁current	-14452
▁déconné	-14453
▁engaged	-14454
▁glanced	-14455
▁infinie	-14456
▁legwork	-14457
▁network	-14458
▁parader	-14459
▁presump	-14460
▁rematch	-14461
▁sweated	-14462
▁sweater	-14463
▁sweeter	-14464
▁tragedy	-14465
▁triumph	-14466
▁Ralentis	-14467
▁Regardes	-14468
▁bienvenu	-14469
▁boutonné	-14470
▁canceled	-14471
▁currency	-14472
▁disaster	-14473
▁déverrou	-14474
▁outraged	-14475
▁papillon	-14476
▁rummaged	-14477
▁sermonné	-14478
▁sourires	-14479
▁spatiale	-14480
▁sportifs	-14481
▁spéciale	-14482
▁stealing	-14483
▁strictly	-14484
▁stutters	-14485
▁suivront	-14486
▁supplice	-14487
▁surmonté	-14488
▁survivre	-14489
▁swarming	-14490
▁swelling	-14491
▁talented	-14492
▁tatouage	-14493
▁thankful	-14494
▁tinkling	-14495
▁tortoise	-14496
▁tortures	-14497
▁touchera	-14498
▁tournais	-14499
hecy	-14500
rima	-14501
boute	-14502
gener	-14503
hares	-14504
joute	-14505
échec	-14506
▁Dépê	-14507
▁gauf	-14508
▁Gener	-14509
▁biche	-14510
▁delud	-14511
▁gauch	-14512
▁limit	-14513
▁niche	-14514
▁rayon	-14515
▁rédig	-14516
▁sells	-14517
▁topic	-14518
▁voies	-14519
ability	-14520
inching	-14521
unching	-14522
▁Ajoute	-14523
▁concur	-14524
▁diront	-14525
▁déclar	-14526
▁déclin	-14527
▁escort	-14528
▁ingred	-14529
▁prîmes	-14530
▁trompé	-14531
▁voient	-14532
intended	-14533
▁affiche	-14534
▁boisson	-14535
▁cracked	-14536
▁déclara	-14537
▁démener	-14538
▁exprima	-14539
▁gaufres	-14540
▁inventa	-14541
▁inventé	-14542
▁involve	-14543
▁majeure	-14544
▁majeurs	-14545
▁mettais	-14546
▁pleutre	-14547
▁rédigée	-14548
▁sadique	-14549
▁trompés	-14550
bouteille	-14551
enerating	-14552
generated	-14553
objection	-14554
▁biblioth	-14555
▁catching	-14556
▁cathares	-14557
▁deluding	-14558
▁déclarer	-14559
▁escorted	-14560
▁inventer	-14561
▁involont	-14562
▁involves	-14563
▁prophecy	-14564
▁répondis	-14565
▁répondit	-14566
▁tourtere	-14567
▁tracteur	-14568
▁transluc	-14569
▁trompait	-14570
▁trousers	-14571
▁téléphon	-14572
▁unopened	-14573
▁unrelent	-14574
▁unsalted	-14575
▁urbaines	-14576
▁utilized	-14577
▁vainquit	-14578
▁visibles	-14579
▁vérifier	-14580
▁weighing	-14581
▁whiplash	-14582
▁wondered	-14583
▁Éloignez	-14584
▁écartées	-14585
▁échapper	-14586
▁échouera	-14587
▁éclatées	-14588
▁écoutais	-14589
▁écoutiez	-14590
▁écrivain	-14591
▁éducatif	-14592
▁éléphant	-14593
▁émotions	-14594
▁énervées	-14595
▁éteindre	-14596
▁éternité	-14597
▁évanouie	-14598
▁éveillée	-14599
erco	-14600
ieth	-14601
jury	-14602
ounc	-14603
ouns	-14604
aspir	-14605
ciety	-14606
forme	-14607
inety	-14608
ogram	-14609
otseu	-14610
pirée	-14611
pleas	-14612
rigée	-14613
ûtons	-14614
▁Afin	-14615
▁Insc	-14616
▁dots	-14617
▁erad	-14618
▁fury	-14619
▁goût	-14620
▁vect	-14621
effets	-14622
effond	-14623
ercées	-14624
forcer	-14625
llerco	-14626
ouncil	-14627
rigant	-14628
répide	-14629
▁Euler	-14630
▁boots	-14631
▁erron	-14632
▁nouns	-14633
▁recip	-14634
▁roots	-14635
▁subsc	-14636
efforts	-14637
ogramme	-14638
society	-14639
▁Injury	-14640
▁Smiths	-14641
▁ninety	-14642
▁vector	-14643
▁veille	-14644
▁veillé	-14645
▁érigée	-14646
aspirine	-14647
effondra	-14648
pleasant	-14649
▁Council	-14650
▁Inscris	-14651
▁Laotseu	-14652
▁choisie	-14653
▁crowded	-14654
▁dangere	-14655
▁gercées	-14656
▁plainly	-14657
▁superbe	-14658
▁traitée	-14659
▁Inspirée	-14660
▁Trouvons	-14661
▁allaiter	-14662
▁croûtons	-14663
▁deadline	-14664
▁erronées	-14665
▁fortieth	-14666
▁journaux	-14667
▁puissent	-14668
▁reciproc	-14669
▁rollerco	-14670
▁shortage	-14671
▁shortest	-14672
▁traitent	-14673
Atlantique	-14674
Australian	-14675
Butterbrot	-14676
Université	-14677
adolescent	-14678
amatically	-14679
apprendrai	-14680
appréhende	-14681
astrologie	-14682
ennorragie	-14683
esantissez	-14684
estinienne	-14685
excellence	-14686
fenestrate	-14687
hémisphère	-14688
hémorragie	-14689
importance	-14690
interrompu	-14691
introduire	-14692
intéresser	-14693
llywoodien	-14694
mindedness	-14695
odiversity	-14696
ordinateur	-14697
outeillage	-14698
utomobiles	-14699
lived	-14700
uggle	-14701
▁blew	-14702
▁bâti	-14703
▁hôte	-14704
advant	-14705
udices	-14706
érisme	-14707
▁North	-14708
▁arose	-14709
▁bleed	-14710
▁dived	-14711
▁drawn	-14712
▁métal	-14713
▁picks	-14714
▁solem	-14715
▁tirer	-14716
▁tresp	-14717
attirer	-14718
ibilité	-14719
iculate	-14720
judices	-14721
utalité	-14722
▁Flying	-14723
▁Putain	-14724
[...]
